<unk>	0
<s>	0
</s>	0
▁t	-0
▁a	-1
he	-2
in	-3
re	-4
▁the	-5
on	-6
er	-7
▁o	-8
▁s	-9
at	-10
en	-11
▁c	-12
▁w	-13
es	-14
nd	-15
is	-16
or	-17
it	-18
ed	-19
▁p	-20
al	-21
▁of	-22
▁b	-23
▁f	-24
an	-25
▁in	-26
ar	-27
ing	-28
▁and	-29
ou	-30
▁m	-31
ic	-32
▁to	-33
ion	-34
▁d	-35
as	-36
ro	-37
le	-38
▁h	-39
ent	-40
▁th	-41
▁T	-42
il	-43
▁re	-44
ct	-45
▁e	-46
om	-47
st	-48
▁l	-49
▁n	-50
ve	-51
ly	-52
▁A	-53
▁be	-54
▁S	-55
ol	-56
se	-57
▁is	-58
ation	-59
▁g	-60
id	-61
im	-62
▁C	-63
ce	-64
ra	-65
ut	-66
et	-67
ot	-68
ur	-69
▁I	-70
ch	-71
▁for	-72
ig	-73
▁on	-74
ow	-75
▁The	-76
▁that	-77
ver	-78
▁u	-79
ir	-80
▁st	-81
am	-82
▁1	-83
▁M	-84
ad	-85
ay	-86
▁as	-87
el	-88
ul	-89
ith	-90
her	-91
▁P	-92
▁,	-93
▁B	-94
▁con	-95
▁pro	-96
▁(	-97
▁with	-98
▁an	-99
ter	-100
▁wh	-101
▁y	-102
▁al	-103
▁are	-104
if	-105
▁H	-106
▁or	-107
▁it	-108
th	-109
od	-110
ist	-111
ge	-112
ment	-113
▁W	-114
▁.	-115
op	-116
ers	-117
▁was	-118
▁de	-119
ate	-120
▁D	-121
ere	-122
ies	-123
▁R	-124
▁he	-125
us	-126
▁by	-127
▁F	-128
ill	-129
ab	-130
um	-131
ore	-132
est	-133
▁ex	-134
rom	-135
▁E	-136
▁at	-137
ac	-138
▁com	-139
and	-140
▁2	-141
os	-142
ri	-143
res	-144
ess	-145
ld	-146
▁N	-147
ect	-148
▁su	-149
ity	-150
em	-151
our	-152
▁v	-153
ain	-154
▁"	-155
▁G	-156
▁from	-157
▁L	-158
ive	-159
nt	-160
qu	-161
ant	-162
pp	-163
igh	-164
ud	-165
ke	-166
▁se	-167
▁-	-168
oc	-169
ort	-170
iv	-171
▁ha	-172
00	-173
▁ch	-174
▁r	-175
ew	-176
un	-177
art	-178
▁not	-179
▁O	-180
ure	-181
ical	-182
ial	-183
▁J	-184
▁In	-185
▁sh	-186
▁le	-187
ear	-188
ich	-189
all	-190
og	-191
▁have	-192
▁can	-193
▁sp	-194
pt	-195
▁en	-196
ight	-197
rou	-198
gh	-199
ated	-200
ther	-201
▁U	-202
ard	-203
ost	-204
▁this	-205
ould	-206
▁ab	-207
ag	-208
ions	-209
ec	-210
▁19	-211
ine	-212
▁you	-213
ust	-214
ast	-215
▁wor	-216
▁pl	-217
out	-218
ell	-219
ap	-220
ome	-221
▁which	-222
ans	-223
ff	-224
▁int	-225
▁we	-226
▁im	-227
du	-228
ip	-229
▁their	-230
ong	-231
ak	-232
▁us	-233
act	-234
age	-235
ous	-236
▁k	-237
▁were	-238
ia	-239
ary	-240
red	-241
ide	-242
▁Th	-243
▁cont	-244
▁whe	-245
per	-246
cc	-247
end	-248
▁inc	-249
iz	-250
ber	-251
▁comp	-252
ru	-253
▁ad	-254
▁all	-255
▁dis	-256
▁they	-257
ult	-258
orm	-259
▁his	-260
▁res	-261
ations	-262
▁=	-263
ood	-264
▁has	-265
▁St	-266
vel	-267
ater	-268
pl	-269
▁more	-270
ib	-271
▁but	-272
▁cl	-273
so	-274
▁per	-275
ks	-276
▁other	-277
ry	-278
ence	-279
▁K	-280
▁will	-281
ally	-282
▁ne	-283
▁man	-284
▁do	-285
ild	-286
ame	-287
▁one	-288
able	-289
are	-290
av	-291
▁who	-292
ass	-293
▁ar	-294
ign	-295
ord	-296
ind	-297
ance	-298
ish	-299
▁un	-300
ach	-301
ep	-302
▁also	-303
au	-304
▁Ch	-305
ub	-306
ress	-307
ction	-308
ase	-309
ice	-310
ition	-311
▁me	-312
▁te	-313
ory	-314
▁part	-315
mer	-316
reat	-317
▁j	-318
ount	-319
ire	-320
▁app	-321
ents	-322
ack	-323
▁@	-324
ose	-325
ace	-326
▁sc	-327
▁'	-328
▁out	-329
▁had	-330
ian	-331
ime	-332
ok	-333
▁ev	-334
ens	-335
one	-336
ound	-337
▁so	-338
ie	-339
▁imp	-340
▁V	-341
ree	-342
▁It	-343
ite	-344
ake	-345
▁your	-346
▁about	-347
ue	-348
▁3	-349
▁inf	-350
ric	-351
▁year	-352
ors	-353
ces	-354
).	-355
very	-356
▁been	-357
▁its	-358
ang	-359
▁pre	-360
▁bec	-361
▁rec	-362
▁than	-363
▁stud	-364
ates	-365
▁“	-366
▁up	-367
low	-368
olog	-369
ile	-370
▁ag	-371
▁sy	-372
rit	-373
▁comm	-374
▁may	-375
▁pe	-376
own	-377
vers	-378
▁This	-379
▁200	-380
ough	-381
erv	-382
ph	-383
ail	-384
irst	-385
▁them	-386
▁ra	-387
ond	-388
lud	-389
ays	-390
ike	-391
▁tw	-392
▁into	-393
nder	-394
▁Y	-395
▁tra	-396
▁qu	-397
ings	-398
ons	-399
▁over	-400
tern	-401
ll	-402
lic	-403
▁go	-404
▁there	-405
▁Un	-406
les	-407
▁when	-408
▁some	-409
hed	-410
▁would	-411
ren	-412
▁ro	-413
▁time	-414
ove	-415
▁20	-416
int	-417
▁sa	-418
rough	-419
iff	-420
ople	-421
ational	-422
-@	-423
▁@-@	-424
▁des	-425
ual	-426
▁kn	-427
te	-428
▁col	-429
▁ind	-430
▁new	-431
ms	-432
▁first	-433
▁rep	-434
▁cons	-435
▁work	-436
▁He	-437
we	-438
fter	-439
▁most	-440
lect	-441
wn	-442
ific	-443
ject	-444
▁bet	-445
▁includ	-446
▁these	-447
ious	-448
ause	-449
ments	-450
▁under	-451
ced	-452
▁act	-453
▁bl	-454
▁acc	-455
▁gen	-456
ys	-457
▁no	-458
▁two	-459
▁off	-460
▁people	-461
▁such	-462
▁rel	-463
ov	-464
▁4	-465
▁use	-466
ities	-467
velop	-468
▁only	-469
ook	-470
▁how	-471
▁diff	-472
stem	-473
ient	-474
ark	-475
iss	-476
amp	-477
▁tr	-478
uring	-479
ob	-480
ied	-481
▁5	-482
rib	-483
▁spec	-484
erm	-485
ning	-486
▁any	-487
ool	-488
ath	-489
▁produ	-490
▁As	-491
rop	-492
▁prov	-493
▁like	-494
),	-495
ative	-496
ular	-497
▁eff	-498
▁if	-499
▁att	-500
▁am	-501
▁18	-502
alth	-503
▁used	-504
ating	-505
▁ph	-506
old	-507
▁reg	-508
▁through	-509
als	-510
▁child	-511
ics	-512
round	-513
ts	-514
▁develop	-515
▁po	-516
..	-517
▁fe	-518
ne	-519
oss	-520
▁exp	-521
ng	-522
▁many	-523
land	-524
ited	-525
uc	-526
ased	-527
ise	-528
▁sur	-529
▁ob	-530
▁dec	-531
arch	-532
ade	-533
meric	-534
oth	-535
▁her	-536
▁Wh	-537
▁years	-538
▁what	-539
▁ac	-540
▁ass	-541
yp	-542
▁sub	-543
ered	-544
iet	-545
▁our	-546
▁co	-547
▁fl	-548
▁pr	-549
gan	-550
▁rem	-551
▁em	-552
▁need	-553
aw	-554
▁system	-555
ween	-556
fore	-557
ble	-558
hen	-559
ten	-560
ram	-561
▁Americ	-562
ures	-563
ange	-564
cy	-565
▁add	-566
ful	-567
row	-568
ower	-569
ife	-570
▁Al	-571
▁supp	-572
▁after	-573
▁201	-574
▁ear	-575
▁)	-576
ution	-577
▁between	-578
▁pres	-579
ible	-580
hes	-581
sel	-582
ink	-583
▁inv	-584
ick	-585
▁Re	-586
ert	-587
▁could	-588
ists	-589
▁num	-590
▁hel	-591
ility	-592
▁where	-593
ft	-594
▁cent	-595
ever	-596
▁sm	-597
ily	-598
ident	-599
ict	-600
ivers	-601
▁well	-602
▁high	-603
urn	-604
▁said	-605
▁form	-606
uch	-607
eth	-608
▁lar	-609
form	-610
▁water	-611
ont	-612
▁pol	-613
▁differe	-614
▁help	-615
▁should	-616
▁found	-617
▁bu	-618
xt	-619
▁inter	-620
its	-621
▁rese	-622
chool	-623
ines	-624
ract	-625
▁6	-626
ins	-627
▁An	-628
iew	-629
▁inst	-630
▁trans	-631
oy	-632
ology	-633
▁pub	-634
ural	-635
▁Com	-636
▁For	-637
ants	-638
ved	-639
▁–	-640
▁call	-641
▁disc	-642
▁New	-643
▁mod	-644
ism	-645
ollow	-646
ually	-647
▁count	-648
itt	-649
▁sec	-650
▁then	-651
cept	-652
▁ed	-653
▁long	-654
▁Ar	-655
▁|	-656
other	-657
▁she	-658
ience	-659
▁Pro	-660
▁pers	-661
cer	-662
ward	-663
ature	-664
▁inform	-665
▁car	-666
vern	-667
▁gener	-668
▁loc	-669
▁ref	-670
vent	-671
▁We	-672
▁because	-673
gy	-674
cess	-675
▁prog	-676
▁det	-677
▁sim	-678
▁during	-679
roup	-680
▁ext	-681
▁him	-682
cent	-683
chn	-684
io	-685
▁def	-686
▁those	-687
▁world	-688
ather	-689
▁end	-690
ork	-691
▁med	-692
▁199	-693
▁make	-694
led	-695
▁made	-696
▁very	-697
▁If	-698
▁ca	-699
▁Sp	-700
."	-701
▁incre	-702
▁just	-703
▁sign	-704
▁resp	-705
ck	-706
▁mon	-707
▁dist	-708
▁effect	-709
▁ent	-710
ros	-711
ically	-712
▁being	-713
ness	-714
▁gra	-715
000	-716
get	-717
▁follow	-718
▁hum	-719
orn	-720
▁even	-721
▁Se	-722
▁set	-723
▁result	-724
▁7	-725
▁dep	-726
▁import	-727
▁Sc	-728
▁see	-729
▁partic	-730
▁each	-731
▁health	-732
▁again	-733
hip	-734
iel	-735
▁var	-736
▁get	-737
ized	-738
aking	-739
▁How	-740
ished	-741
ues	-742
ives	-743
arm	-744
imes	-745
▁know	-746
▁information	-747
ix	-748
ale	-749
any	-750
ars	-751
iversity	-752
▁fam	-753
ince	-754
▁De	-755
▁art	-756
ages	-757
inal	-758
▁pat	-759
▁much	-760
▁typ	-761
▁same	-762
▁8	-763
▁aut	-764
oh	-765
▁own	-766
und	-767
ases	-768
▁before	-769
▁way	-770
gg	-771
▁different	-772
ruct	-773
▁fact	-774
▁(1	-775
ata	-776
ds	-777
▁cre	-778
▁pop	-779
▁exper	-780
▁requ	-781
▁children	-782
▁hist	-783
ran	-784
▁right	-785
▁10	-786
▁three	-787
▁lead	-788
▁both	-789
ined	-790
▁They	-791
▁ke	-792
ty	-793
ral	-794
▁group	-795
▁show	-796
ron	-797
▁But	-798
▁state	-799
iron	-800
ury	-801
▁Ind	-802
▁life	-803
ection	-804
ock	-805
▁9	-806
▁back	-807
▁On	-808
▁every	-809
▁number	-810
ven	-811
▁small	-812
irect	-813
▁min	-814
▁occ	-815
▁char	-816
ex	-817
outh	-818
▁mem	-819
▁commun	-820
▁serv	-821
▁There	-822
ah	-823
▁study	-824
▁school	-825
up	-826
ample	-827
▁ret	-828
ute	-829
con	-830
▁bo	-831
ting	-832
▁ser	-833
▁my	-834
▁while	-835
▁soc	-836
ax	-837
ody	-838
.,	-839
▁level	-840
ially	-841
▁comple	-842
▁av	-843
hem	-844
ters	-845
▁cur	-846
ier	-847
▁est	-848
ices	-849
▁find	-850
ene	-851
▁proble	-852
der	-853
orth	-854
▁test	-855
▁process	-856
▁now	-857
ton	-858
aj	-859
omen	-860
▁govern	-861
▁techn	-862
▁ins	-863
air	-864
read	-865
||	-866
ize	-867
▁expl	-868
▁str	-869
imate	-870
▁read	-871
▁report	-872
▁does	-873
ision	-874
,"	-875
rol	-876
ving	-877
▁Is	-878
▁did	-879
▁At	-880
▁main	-881
man	-882
way	-883
▁land	-884
att	-885
oun	-886
▁American	-887
▁person	-888
ides	-889
▁large	-890
cl	-891
ouse	-892
ash	-893
▁poss	-894
▁And	-895
ected	-896
▁important	-897
▁di	-898
▁day	-899
▁called	-900
▁contin	-901
▁bel	-902
ave	-903
▁power	-904
▁gl	-905
ger	-906
▁including	-907
ergy	-908
viron	-909
▁often	-910
▁less	-911
▁design	-912
ason	-913
▁lear	-914
ulation	-915
ves	-916
▁students	-917
▁good	-918
▁play	-919
▁sk	-920
▁conf	-921
▁treat	-922
▁food	-923
▁organ	-924
ared	-925
▁prot	-926
ium	-927
uss	-928
ivid	-929
ug	-930
▁down	-931
▁research	-932
ains	-933
▁point	-934
▁plan	-935
com	-936
▁public	-937
hers	-938
▁elect	-939
▁class	-940
▁op	-941
ull	-942
▁Con	-943
▁val	-944
▁University	-945
-1	-946
▁support	-947
▁Le	-948
bers	-949
osed	-950
rent	-951
illion	-952
▁cell	-953
▁Sh	-954
▁const	-955
ross	-956
self	-957
▁known	-958
ained	-959
ring	-960
▁United	-961
▁writ	-962
▁dise	-963
dition	-964
▁human	-965
ency	-966
ted	-967
akes	-968
▁must	-969
▁great	-970
▁using	-971
ital	-972
▁Ph	-973
▁though	-974
ired	-975
▁Eng	-976
▁consid	-977
▁som	-978
vironment	-979
▁hand	-980
.”	-981
▁around	-982
▁Res	-983
▁ris	-984
▁data	-985
acter	-986
▁take	-987
de	-988
▁met	-989
The	-990
iety	-991
▁grow	-992
ality	-993
▁sol	-994
▁direct	-995
oci	-996
itions	-997
▁Ad	-998
day	-999
eral	-1000
▁mat	-1001
raph	-1002
ris	-1003
▁[	-1004
▁When	-1005
▁These	-1006
ians	-1007
▁common	-1008
inc	-1009
▁second	-1010
iqu	-1011
0.	-1012
▁Col	-1013
▁air	-1014
iod	-1015
▁cour	-1016
reen	-1017
▁activ	-1018
▁care	-1019
ional	-1020
lish	-1021
▁You	-1022
,000	-1023
stand	-1024
▁adv	-1025
▁cor	-1026
els	-1027
▁Cl	-1028
▁15	-1029
ield	-1030
ording	-1031
▁equ	-1032
▁build	-1033
▁fun	-1034
ived	-1035
▁cle	-1036
▁redu	-1037
▁war	-1038
▁gu	-1039
▁desc	-1040
az	-1041
▁against	-1042
▁17	-1043
ajor	-1044
▁stand	-1045
the	-1046
ple	-1047
▁still	-1048
▁example	-1049
▁allow	-1050
▁mil	-1051
ner	-1052
▁pass	-1053
▁appro	-1054
conom	-1055
▁To	-1056
lished	-1057
▁area	-1058
▁sever	-1059
gin	-1060
▁place	-1061
▁present	-1062
▁sl	-1063
nce	-1064
▁vis	-1065
▁start	-1066
▁few	-1067
ission	-1068
▁States	-1069
▁near	-1070
aterial	-1071
ries	-1072
▁government	-1073
iving	-1074
▁early	-1075
▁12	-1076
▁aff	-1077
▁body	-1078
ames	-1079
line	-1080
▁look	-1081
iver	-1082
rist	-1083
▁dem	-1084
▁four	-1085
ources	-1086
iven	-1087
ior	-1088
▁percent	-1089
▁later	-1090
ified	-1091
▁—	-1092
▁National	-1093
ense	-1094
▁another	-1095
view	-1096
▁chang	-1097
▁fil	-1098
▁bro	-1099
rain	-1100
ination	-1101
ration	-1102
hor	-1103
ccess	-1104
▁cap	-1105
▁several	-1106
▁educ	-1107
▁mus	-1108
▁within	-1109
▁unt	-1110
▁last	-1111
▁orig	-1112
▁caus	-1113
erest	-1114
▁pur	-1115
▁Comm	-1116
▁Q	-1117
▁law	-1118
▁project	-1119
ization	-1120
▁Be	-1121
▁tem	-1122
▁All	-1123
▁beh	-1124
▁iss	-1125
▁What	-1126
▁old	-1127
ets	-1128
though	-1129
ik	-1130
▁oper	-1131
▁rest	-1132
eng	-1133
ern	-1134
▁light	-1135
agn	-1136
▁without	-1137
▁belie	-1138
▁pos	-1139
▁imm	-1140
▁Can	-1141
▁bre	-1142
ering	-1143
▁leg	-1144
▁quest	-1145
oms	-1146
▁major	-1147
ret	-1148
▁species	-1149
me	-1150
▁might	-1151
▁Pl	-1152
▁Ex	-1153
▁Z	-1154
less	-1155
▁However	-1156
▁program	-1157
ertain	-1158
ividual	-1159
▁prof	-1160
ently	-1161
arc	-1162
ids	-1163
ption	-1164
▁development	-1165
ohn	-1166
ograph	-1167
▁fore	-1168
ank	-1169
bs	-1170
arent	-1171
▁women	-1172
ats	-1173
▁material	-1174
▁ele	-1175
▁energy	-1176
atic	-1177
▁198	-1178
ological	-1179
▁spe	-1180
▁men	-1181
ina	-1182
▁ide	-1183
▁include	-1184
▁says	-1185
▁perform	-1186
ided	-1187
▁eng	-1188
▁Cent	-1189
▁phys	-1190
▁En	-1191
ended	-1192
▁rece	-1193
▁rele	-1194
atural	-1195
▁scient	-1196
▁ant	-1197
▁occur	-1198
▁meas	-1199
▁history	-1200
rodu	-1201
osp	-1202
▁eas	-1203
▁ter	-1204
ards	-1205
▁disease	-1206
▁econom	-1207
▁change	-1208
une	-1209
alk	-1210
▁par	-1211
▁pract	-1212
ator	-1213
▁:	-1214
▁since	-1215
ailable	-1216
▁16	-1217
▁record	-1218
▁&	-1219
▁anim	-1220
here	-1221
angu	-1222
ned	-1223
▁blood	-1224
use	-1225
▁control	-1226
▁John	-1227
▁ve	-1228
▁opp	-1229
▁bas	-1230
▁interest	-1231
▁environment	-1232
▁sym	-1233
ource	-1234
▁think	-1235
▁low	-1236
▁es	-1237
▁open	-1238
lu	-1239
▁individual	-1240
urop	-1241
▁mar	-1242
▁mark	-1243
▁want	-1244
ien	-1245
rid	-1246
▁period	-1247
▁prop	-1248
ites	-1249
itive	-1250
▁family	-1251
▁Or	-1252
▁ident	-1253
▁head	-1254
sy	-1255
▁particular	-1256
min	-1257
ised	-1258
▁until	-1259
▁Wor	-1260
par	-1261
▁say	-1262
,”	-1263
▁name	-1264
ek	-1265
▁$	-1266
▁fin	-1267
ittle	-1268
▁following	-1269
▁11	-1270
ote	-1271
▁become	-1272
▁run	-1273
mber	-1274
▁Brit	-1275
▁understand	-1276
▁among	-1277
ential	-1278
▁product	-1279
▁tre	-1280
▁Te	-1281
▁move	-1282
▁million	-1283
▁addition	-1284
20	-1285
▁Christ	-1286
▁current	-1287
▁pri	-1288
▁view	-1289
ley	-1290
ining	-1291
ird	-1292
▁meth	-1293
▁home	-1294
▁top	-1295
▁God	-1296
cing	-1297
▁cult	-1298
olution	-1299
ling	-1300
idence	-1301
abor	-1302
▁month	-1303
ww	-1304
▁sing	-1305
ably	-1306
▁impro	-1307
▁US	-1308
urope	-1309
▁pot	-1310
pr	-1311
▁risk	-1312
▁areas	-1313
ify	-1314
▁real	-1315
▁available	-1316
ged	-1317
tt	-1318
▁don	-1319
▁order	-1320
ode	-1321
▁best	-1322
irc	-1323
▁appear	-1324
ole	-1325
ention	-1326
▁el	-1327
▁lim	-1328
stit	-1329
▁became	-1330
ilar	-1331
▁invol	-1332
▁rad	-1333
▁hig	-1334
▁War	-1335
▁non	-1336
ability	-1337
oint	-1338
▁country	-1339
▁here	-1340
▁success	-1341
ane	-1342
ories	-1343
▁local	-1344
sp	-1345
rap	-1346
▁tri	-1347
icle	-1348
▁By	-1349
▁Ear	-1350
▁Europe	-1351
▁social	-1352
▁proper	-1353
▁Af	-1354
▁based	-1355
▁One	-1356
▁Med	-1357
▁along	-1358
▁;	-1359
▁too	-1360
▁pain	-1361
ggest	-1362
▁fre	-1363
▁century	-1364
gen	-1365
urther	-1366
iness	-1367
▁del	-1368
ways	-1369
▁provide	-1370
▁given	-1371
ember	-1372
por	-1373
▁list	-1374
▁Bl	-1375
▁possible	-1376
▁Germ	-1377
▁polit	-1378
ends	-1379
▁times	-1380
▁anal	-1381
▁After	-1382
ober	-1383
▁team	-1384
ued	-1385
aken	-1386
resent	-1387
▁object	-1388
sc	-1389
▁May	-1390
▁book	-1391
▁cost	-1392
▁death	-1393
▁suggest	-1394
ternational	-1395
2.	-1396
▁author	-1397
▁mov	-1398
▁dev	-1399
▁vol	-1400
▁cause	-1401
ither	-1402
iter	-1403
▁signific	-1404
ured	-1405
▁describ	-1406
▁0	-1407
ients	-1408
▁So	-1409
eg	-1410
▁World	-1411
ental	-1412
▁197	-1413
▁Ge	-1414
oot	-1415
▁Some	-1416
▁short	-1417
▁better	-1418
ope	-1419
▁bi	-1420
▁age	-1421
▁fac	-1422
▁Mar	-1423
▁che	-1424
▁et	-1425
▁langu	-1426
▁turn	-1427
▁crit	-1428
▁post	-1429
vious	-1430
▁others	-1431
eb	-1432
ances	-1433
▁far	-1434
▁press	-1435
▁prom	-1436
▁method	-1437
▁little	-1438
▁means	-1439
▁treatment	-1440
ones	-1441
ored	-1442
ogn	-1443
▁however	-1444
▁character	-1445
cial	-1446
▁cond	-1447
face	-1448
ler	-1449
ills	-1450
▁days	-1451
1.	-1452
▁14	-1453
alf	-1454
▁mean	-1455
▁sw	-1456
to	-1457
ploy	-1458
▁North	-1459
▁offic	-1460
▁case	-1461
oks	-1462
aim	-1463
ware	-1464
▁associ	-1465
orts	-1466
isc	-1467
▁She	-1468
▁Car	-1469
▁estab	-1470
▁13	-1471
aps	-1472
▁certain	-1473
▁young	-1474
▁natural	-1475
▁lo	-1476
▁put	-1477
▁able	-1478
oph	-1479
▁prevent	-1480
▁left	-1481
iam	-1482
▁(2	-1483
ately	-1484
▁free	-1485
▁With	-1486
ead	-1487
▁bene	-1488
▁cancer	-1489
▁nec	-1490
▁cal	-1491
ots	-1492
atory	-1493
▁problems	-1494
▁population	-1495
▁dra	-1496
▁struct	-1497
▁Ab	-1498
▁keep	-1499
▁obs	-1500
▁(19	-1501
▁cells	-1502
ott	-1503
ales	-1504
▁come	-1505
▁Afric	-1506
▁comput	-1507
50	-1508
▁Sy	-1509
▁seem	-1510
rie	-1511
oid	-1512
...	-1513
▁ann	-1514
▁exist	-1515
▁York	-1516
idd	-1517
▁bus	-1518
▁saf	-1519
▁Gen	-1520
urch	-1521
ox	-1522
▁196	-1523
▁similar	-1524
▁problem	-1525
ray	-1526
▁determ	-1527
▁comb	-1528
ilt	-1529
oman	-1530
▁heart	-1531
▁Aust	-1532
ann	-1533
aster	-1534
▁Cal	-1535
ruction	-1536
▁South	-1537
my	-1538
▁next	-1539
▁plant	-1540
son	-1541
▁colle	-1542
▁city	-1543
aper	-1544
ression	-1545
ribut	-1546
▁--	-1547
▁happ	-1548
▁exam	-1549
▁circ	-1550
▁let	-1551
▁vir	-1552
app	-1553
be	-1554
▁due	-1555
ape	-1556
▁hard	-1557
af	-1558
▁usually	-1559
▁significant	-1560
▁things	-1561
▁30	-1562
enn	-1563
▁access	-1564
▁return	-1565
iation	-1566
elf	-1567
ators	-1568
lement	-1569
icult	-1570
ery	-1571
▁space	-1572
over	-1573
▁levels	-1574
aining	-1575
▁line	-1576
▁past	-1577
most	-1578
pect	-1579
▁never	-1580
▁indust	-1581
ours	-1582
erence	-1583
▁special	-1584
▁side	-1585
▁type	-1586
▁ill	-1587
▁194	-1588
▁began	-1589
omm	-1590
▁least	-1591
let	-1592
▁flow	-1593
▁mult	-1594
▁above	-1595
▁general	-1596
rug	-1597
pec	-1598
▁amount	-1599
ae	-1600
ending	-1601
ourn	-1602
▁Man	-1603
▁dam	-1604
▁plac	-1605
by	-1606
▁gre	-1607
▁site	-1608
▁er	-1609
ument	-1610
ges	-1611
▁likely	-1612
▁Am	-1613
▁dri	-1614
▁community	-1615
etic	-1616
▁begin	-1617
▁ep	-1618
val	-1619
erc	-1620
▁five	-1621
▁That	-1622
not	-1623
duct	-1624
▁benef	-1625
▁researc	-1626
▁making	-1627
▁strong	-1628
uture	-1629
▁Rep	-1630
ively	-1631
10	-1632
▁clear	-1633
▁invest	-1634
of	-1635
ublic	-1636
port	-1637
▁enc	-1638
ocus	-1639
▁systems	-1640
▁term	-1641
▁wind	-1642
▁Go	-1643
▁prim	-1644
▁profess	-1645
▁represent	-1646
▁bir	-1647
▁influ	-1648
▁members	-1649
▁America	-1650
ipp	-1651
▁national	-1652
▁hy	-1653
▁results	-1654
▁single	-1655
▁cr	-1656
▁ground	-1657
apt	-1658
▁Health	-1659
▁education	-1660
▁gr	-1661
▁Dr	-1662
▁countries	-1663
".	-1664
right	-1665
unt	-1666
▁conn	-1667
▁course	-1668
▁creat	-1669
▁changes	-1670
cle	-1671
▁discuss	-1672
▁further	-1673
1,	-1674
ung	-1675
▁sum	-1676
asing	-1677
▁temper	-1678
▁difficult	-1679
▁X	-1680
▁increase	-1681
atch	-1682
▁State	-1683
▁having	-1684
ffic	-1685
▁/	-1686
▁English	-1687
▁ask	-1688
▁Hist	-1689
3.	-1690
▁His	-1691
work	-1692
▁British	-1693
▁Dep	-1694
▁dr	-1695
▁full	-1696
▁house	-1697
side	-1698
▁toget	-1699
▁together	-1700
pecially	-1701
overed	-1702
ivil	-1703
ething	-1704
▁took	-1705
▁away	-1706
edi	-1707
▁event	-1708
▁Gu	-1709
obal	-1710
▁Im	-1711
artment	-1712
▁indic	-1713
ilities	-1714
▁came	-1715
augh	-1716
▁Resear	-1717
▁dest	-1718
▁Ass	-1719
ortun	-1720
itor	-1721
ream	-1722
put	-1723
ledge	-1724
▁doct	-1725
▁function	-1726
aves	-1727
5.	-1728
▁complete	-1729
ches	-1730
▁conditions	-1731
.@	-1732
▁parent	-1733
▁@.@	-1734
▁necess	-1735
▁concer	-1736
▁chem	-1737
2,	-1738
ison	-1739
▁various	-1740
ush	-1741
▁works	-1742
▁developed	-1743
▁language	-1744
▁give	-1745
iting	-1746
eter	-1747
▁tru	-1748
atures	-1749
▁higher	-1750
▁upon	-1751
▁across	-1752
▁game	-1753
▁No	-1754
sw	-1755
▁today	-1756
▁subject	-1757
▁series	-1758
agement	-1759
▁production	-1760
itary	-1761
▁tot	-1762
▁science	-1763
▁fund	-1764
▁feel	-1765
rown	-1766
▁‘	-1767
▁pred	-1768
▁ri	-1769
▁whether	-1770
▁specific	-1771
ands	-1772
▁six	-1773
▁II	-1774
selves	-1775
▁Jew	-1776
wards	-1777
▁Pr	-1778
▁focus	-1779
▁ey	-1780
lo	-1781
▁While	-1782
▁port	-1783
oney	-1784
istic	-1785
iber	-1786
▁studies	-1787
verage	-1788
▁enough	-1789
▁published	-1790
ibr	-1791
▁cho	-1792
ony	-1793
▁close	-1794
▁z	-1795
▁future	-1796
▁seen	-1797
▁init	-1798
▁groups	-1799
▁effects	-1800
▁always	-1801
rict	-1802
▁mot	-1803
illed	-1804
AS	-1805
omes	-1806
▁respons	-1807
▁polic	-1808
▁vers	-1809
▁Ne	-1810
ried	-1811
org	-1812
▁especially	-1813
,@	-1814
▁kind	-1815
▁@,@	-1816
▁Stud	-1817
▁Co	-1818
▁behav	-1819
▁rather	-1820
▁norm	-1821
▁something	-1822
acc	-1823
apan	-1824
▁repl	-1825
▁taken	-1826
attle	-1827
ps	-1828
▁field	-1829
▁impact	-1830
▁stat	-1831
▁relig	-1832
amm	-1833
▁Will	-1834
rated	-1835
▁story	-1836
ique	-1837
▁either	-1838
▁cases	-1839
▁cy	-1840
▁political	-1841
▁camp	-1842
▁words	-1843
▁role	-1844
▁fall	-1845
▁teac	-1846
ready	-1847
▁Jan	-1848
▁learn	-1849
▁histor	-1850
--	-1851
▁Ju	-1852
▁Aug	-1853
▁Pol	-1854
▁meet	-1855
▁Soc	-1856
▁surface	-1857
oon	-1858
rate	-1859
▁Act	-1860
rams	-1861
▁account	-1862
8.	-1863
▁according	-1864
▁medic	-1865
reg	-1866
▁relations	-1867
4.	-1868
itu	-1869
▁brain	-1870
▁Earth	-1871
▁prob	-1872
▁working	-1873
empt	-1874
9.	-1875
▁sent	-1876
▁consum	-1877
▁phot	-1878
▁la	-1879
▁half	-1880
▁Fl	-1881
6.	-1882
▁Ag	-1883
estern	-1884
▁fail	-1885
ee	-1886
ification	-1887
▁win	-1888
▁Har	-1889
iol	-1890
acks	-1891
▁mass	-1892
ront	-1893
▁applic	-1894
▁require	-1895
7.	-1896
aching	-1897
sh	-1898
▁consider	-1899
▁patients	-1900
▁try	-1901
▁lower	-1902
▁Japan	-1903
▁ur	-1904
▁season	-1905
NA	-1906
ington	-1907
etimes	-1908
▁researchers	-1909
ai	-1910
sych	-1911
▁King	-1912
aut	-1913
▁evidence	-1914
▁text	-1915
▁reason	-1916
▁considered	-1917
now	-1918
uel	-1919
ptoms	-1920
▁observ	-1921
fer	-1922
▁Cont	-1923
ney	-1924
▁building	-1925
▁week	-1926
▁live	-1927
▁range	-1928
chie	-1929
for	-1930
▁already	-1931
▁technology	-1932
▁Tr	-1933
▁100	-1934
ster	-1935
incip	-1936
30	-1937
▁claim	-1938
▁going	-1939
yn	-1940
-2	-1941
▁question	-1942
▁Austral	-1943
▁Ed	-1944
gest	-1945
▁film	-1946
▁drug	-1947
▁Pres	-1948
▁deg	-1949
eds	-1950
amed	-1951
ournal	-1952
▁collect	-1953
mb	-1954
▁red	-1955
▁arg	-1956
▁once	-1957
▁cop	-1958
▁thought	-1959
▁25	-1960
▁dom	-1961
▁key	-1962
▁white	-1963
rad	-1964
▁tradition	-1965
▁particip	-1966
▁net	-1967
▁Acc	-1968
thing	-1969
▁plants	-1970
sequ	-1971
▁done	-1972
ibility	-1973
▁recogn	-1974
▁rights	-1975
▁hold	-1976
▁states	-1977
roll	-1978
▁Oct	-1979
bon	-1980
▁music	-1981
▁create	-1982
▁created	-1983
ules	-1984
ule	-1985
▁Although	-1986
▁source	-1987
▁black	-1988
ples	-1989
▁doc	-1990
▁fri	-1991
ask	-1992
▁flu	-1993
epend	-1994
aged	-1995
ips	-1996
ires	-1997
bo	-1998
▁1.	-1999
▁learning	-2000
ened	-2001
▁protect	-2002
ese	-2003
▁...	-2004
ederal	-2005
▁Par	-2006
ateg	-2007
uary	-2008
▁deb	-2009
▁loss	-2010
▁cut	-2011
▁introdu	-2012
▁previous	-2013
▁Sept	-2014
▁Canad	-2015
rel	-2016
▁oil	-2017
▁almost	-2018
▁itself	-2019
▁abs	-2020
ysis	-2021
▁why	-2022
▁Su	-2023
▁Count	-2024
▁employ	-2025
alt	-2026
▁Sec	-2027
▁Des	-2028
▁Pe	-2029
▁Apr	-2030
itted	-2031
▁medical	-2032
▁entire	-2033
▁months	-2034
▁sound	-2035
▁super	-2036
▁June	-2037
▁wide	-2038
ER	-2039
▁built	-2040
▁engine	-2041
osis	-2042
▁resources	-2043
lands	-2044
oura	-2045
ops	-2046
hib	-2047
▁August	-2048
▁March	-2049
▁word	-2050
▁increased	-2051
reme	-2052
▁Other	-2053
▁sens	-2054
▁total	-2055
▁detail	-2056
▁improve	-2057
▁led	-2058
ister	-2059
▁big	-2060
▁needs	-2061
itud	-2062
▁size	-2063
▁arch	-2064
▁50	-2065
▁tool	-2066
▁Many	-2067
3,	-2068
▁bar	-2069
▁business	-2070
▁rate	-2071
▁frequ	-2072
▁Instit	-2073
▁modern	-2074
yl	-2075
▁Min	-2076
rench	-2077
▁experience	-2078
▁Do	-2079
onst	-2080
ights	-2081
ched	-2082
ensive	-2083
▁living	-2084
▁themselves	-2085
▁region	-2086
like	-2087
.)	-2088
▁ess	-2089
▁model	-2090
minist	-2091
▁physical	-2092
▁really	-2093
▁whole	-2094
▁value	-2095
▁activity	-2096
▁Em	-2097
▁article	-2098
▁wr	-2099
▁economic	-2100
▁growth	-2101
▁tell	-2102
▁fish	-2103
aff	-2104
//	-2105
▁School	-2106
ival	-2107
▁provided	-2108
▁gas	-2109
▁separ	-2110
aring	-2111
ript	-2112
ached	-2113
▁song	-2114
▁original	-2115
▁sun	-2116
▁animals	-2117
▁symptoms	-2118
▁reported	-2119
▁heav	-2120
acy	-2121
▁mor	-2122
▁Center	-2123
▁nature	-2124
▁address	-2125
▁ways	-2126
raft	-2127
fact	-2128
atter	-2129
▁below	-2130
go	-2131
▁review	-2132
▁activities	-2133
▁makes	-2134
://	-2135
▁self	-2136
▁attempt	-2137
▁ver	-2138
▁north	-2139
▁cannot	-2140
▁Research	-2141
▁knowledge	-2142
ttp	-2143
irm	-2144
pos	-2145
▁associated	-2146
▁achie	-2147
▁climate	-2148
▁July	-2149
▁service	-2150
▁late	-2151
▁conc	-2152
▁fire	-2153
▁lab	-2154
iddle	-2155
▁April	-2156
ulations	-2157
▁During	-2158
▁priv	-2159
▁Most	-2160
▁needed	-2161
▁included	-2162
iment	-2163
vere	-2164
▁Me	-2165
▁position	-2166
▁related	-2167
▁concept	-2168
▁Fran	-2169
▁attack	-2170
▁required	-2171
▁famil	-2172
ume	-2173
▁coll	-2174
▁neg	-2175
▁Bo	-2176
▁yet	-2177
▁types	-2178
▁recomm	-2179
▁mic	-2180
uck	-2181
eding	-2182
▁ge	-2183
4,	-2184
▁parts	-2185
▁origin	-2186
11	-2187
amin	-2188
▁Mc	-2189
8,	-2190
▁lay	-2191
erve	-2192
__	-2193
▁received	-2194
▁potential	-2195
oll	-2196
▁ever	-2197
▁pressure	-2198
rought	-2199
ief	-2200
▁conduct	-2201
▁September	-2202
ables	-2203
▁More	-2204
▁Rec	-2205
▁held	-2206
▁step	-2207
▁surv	-2208
▁2010	-2209
abit	-2210
▁bur	-2211
rect	-2212
▁opt	-2213
utes	-2214
▁town	-2215
▁West	-2216
▁paper	-2217
▁Dav	-2218
▁rev	-2219
▁situ	-2220
ores	-2221
iding	-2222
9,	-2223
cil	-2224
▁Per	-2225
▁pay	-2226
▁Part	-2227
iction	-2228
▁adult	-2229
▁El	-2230
▁princip	-2231
umb	-2232
▁scientists	-2233
icles	-2234
▁Calif	-2235
vey	-2236
ma	-2237
▁regard	-2238
▁Pre	-2239
▁written	-2240
▁sett	-2241
▁Qu	-2242
che	-2243
▁products	-2244
▁travel	-2245
▁October	-2246
▁action	-2247
▁throughout	-2248
▁computer	-2249
▁provides	-2250
7,	-2251
▁maint	-2252
dom	-2253
6,	-2254
▁produced	-2255
▁French	-2256
▁recent	-2257
hing	-2258
▁caused	-2259
ows	-2260
5,	-2261
lt	-2262
▁measure	-2263
▁services	-2264
▁sex	-2265
▁produce	-2266
▁hours	-2267
▁Wash	-2268
▁Science	-2269
aries	-2270
▁emer	-2271
▁affect	-2272
▁popular	-2273
ze	-2274
▁although	-2275
urs	-2276
imately	-2277
▁answ	-2278
▁Gl	-2279
urity	-2280
▁Bar	-2281
▁quality	-2282
▁Sm	-2283
lying	-2284
▁anc	-2285
rote	-2286
▁chall	-2287
▁link	-2288
▁From	-2289
12	-2290
wh	-2291
▁actually	-2292
▁quick	-2293
▁German	-2294
ety	-2295
▁south	-2296
▁Feb	-2297
▁global	-2298
ucle	-2299
thern	-2300
▁shows	-2301
▁force	-2302
▁suff	-2303
▁Department	-2304
▁page	-2305
ES	-2306
rew	-2307
▁money	-2308
▁questions	-2309
▁accept	-2310
ging	-2311
▁vide	-2312
▁squ	-2313
chan	-2314
▁complex	-2315
▁liter	-2316
▁third	-2317
):	-2318
▁react	-2319
▁mind	-2320
ovember	-2321
▁subst	-2322
▁January	-2323
▁Char	-2324
▁market	-2325
ius	-2326
▁average	-2327
▁earth	-2328
lin	-2329
▁reduce	-2330
▁issues	-2331
▁sat	-2332
▁relationship	-2333
▁River	-2334
▁idea	-2335
onse	-2336
ille	-2337
▁green	-2338
yle	-2339
▁William	-2340
▁dig	-2341
▁military	-2342
▁feet	-2343
cember	-2344
▁programs	-2345
▁According	-2346
▁Californ	-2347
bor	-2348
ricult	-2349
ump	-2350
▁fig	-2351
▁farm	-2352
mon	-2353
▁capt	-2354
▁communic	-2355
AR	-2356
ervation	-2357
▁sold	-2358
▁div	-2359
▁sou	-2360
▁sure	-2361
▁materials	-2362
arily	-2363
▁tax	-2364
▁generally	-2365
▁schools	-2366
nces	-2367
▁Tw	-2368
amb	-2369
▁condition	-2370
ivity	-2371
lex	-2372
▁soil	-2373
rand	-2374
ength	-2375
ply	-2376
erous	-2377
ections	-2378
▁193	-2379
▁simple	-2380
usion	-2381
▁California	-2382
▁Comp	-2383
▁tar	-2384
ences	-2385
ym	-2386
ternal	-2387
▁2.	-2388
▁student	-2389
▁official	-2390
▁taking	-2391
▁longer	-2392
▁parents	-2393
▁relative	-2394
olic	-2395
oles	-2396
ridge	-2397
utions	-2398
▁ce	-2399
AT	-2400
▁Washington	-2401
▁designed	-2402
▁sometimes	-2403
ades	-2404
▁terms	-2405
▁fem	-2406
▁November	-2407
▁command	-2408
adem	-2409
▁necessary	-2410
▁Her	-2411
▁standard	-2412
▁ste	-2413
▁increasing	-2414
atives	-2415
▁24	-2416
▁chemical	-2417
izing	-2418
▁App	-2419
▁coun	-2420
▁ability	-2421
iences	-2422
hern	-2423
▁2012	-2424
▁viol	-2425
▁contact	-2426
na	-2427
▁described	-2428
▁earl	-2429
▁195	-2430
▁displ	-2431
19	-2432
▁issue	-2433
▁40	-2434
▁December	-2435
▁particularly	-2436
▁inj	-2437
▁effective	-2438
▁established	-2439
▁sea	-2440
▁environmental	-2441
▁sense	-2442
▁forest	-2443
▁threat	-2444
asc	-2445
▁events	-2446
▁includes	-2447
▁pattern	-2448
▁skin	-2449
▁went	-2450
▁compet	-2451
ising	-2452
itation	-2453
elt	-2454
▁greater	-2455
ography	-2456
imin	-2457
▁lot	-2458
hold	-2459
▁dou	-2460
▁Institute	-2461
▁weight	-2462
duc	-2463
▁nut	-2464
▁structure	-2465
▁matter	-2466
▁Cons	-2467
ropri	-2468
▁fat	-2469
▁wrote	-2470
ening	-2471
aving	-2472
▁prec	-2473
anced	-2474
▁wild	-2475
▁opportun	-2476
cies	-2477
▁path	-2478
hood	-2479
ban	-2480
aging	-2481
▁http	-2482
▁estim	-2483
ressed	-2484
▁ens	-2485
▁true	-2486
▁slow	-2487
fully	-2488
▁company	-2489
▁Mus	-2490
▁involved	-2491
▁Cor	-2492
order	-2493
▁practice	-2494
rance	-2495
▁respect	-2496
▁Indian	-2497
rig	-2498
▁diet	-2499
▁probably	-2500
erson	-2501
▁Ke	-2502
▁History	-2503
▁shown	-2504
▁job	-2505
▁2011	-2506
▁diagn	-2507
ruary	-2508
▁management	-2509
▁prote	-2510
rial	-2511
▁approach	-2512
ns	-2513
▁nation	-2514
▁Reg	-2515
▁President	-2516
orthern	-2517
▁Tra	-2518
▁ord	-2519
istance	-2520
▁multip	-2521
▁International	-2522
▁international	-2523
▁decl	-2524
▁cross	-2525
▁image	-2526
▁ago	-2527
▁break	-2528
ID	-2529
▁doctor	-2530
vention	-2531
▁refer	-2532
▁Cong	-2533
▁England	-2534
▁released	-2535
▁poor	-2536
▁stop	-2537
▁understanding	-2538
▁outside	-2539
▁sources	-2540
▁stri	-2541
cean	-2542
▁mother	-2543
▁City	-2544
▁assess	-2545
▁calc	-2546
▁Ret	-2547
▁consist	-2548
▁Bec	-2549
▁factors	-2550
▁numbers	-2551
▁bring	-2552
useum	-2553
▁remov	-2554
▁vari	-2555
▁former	-2556
▁civil	-2557
▁emb	-2558
▁fav	-2559
▁European	-2560
▁Phil	-2561
▁added	-2562
▁Ac	-2563
het	-2564
▁deep	-2565
▁visit	-2566
▁personal	-2567
▁road	-2568
▁spread	-2569
Th	-2570
▁Mon	-2571
▁rout	-2572
▁ast	-2573
▁night	-2574
istics	-2575
▁My	-2576
▁miles	-2577
▁uses	-2578
▁industry	-2579
▁cat	-2580
▁society	-2581
▁whose	-2582
▁normal	-2583
ift	-2584
▁Serv	-2585
▁Ant	-2586
ground	-2587
IV	-2588
▁independ	-2589
▁color	-2590
▁content	-2591
▁broad	-2592
▁training	-2593
aul	-2594
▁soft	-2595
▁theory	-2596
▁final	-2597
roy	-2598
▁ap	-2599
▁behavior	-2600
▁scientific	-2601
▁pict	-2602
▁tit	-2603
▁21	-2604
▁response	-2605
ronic	-2606
▁exerc	-2607
▁exc	-2608
▁Int	-2609
▁County	-2610
reek	-2611
▁instead	-2612
based	-2613
issions	-2614
pro	-2615
▁thus	-2616
▁jo	-2617
▁carbon	-2618
▁himself	-2619
hel	-2620
pite	-2621
▁movement	-2622
▁forms	-2623
▁select	-2624
▁analysis	-2625
▁ple	-2626
▁damage	-2627
▁believe	-2628
▁Associ	-2629
verse	-2630
▁effic	-2631
▁individuals	-2632
ibrary	-2633
▁Church	-2634
▁rap	-2635
▁February	-2636
▁Press	-2637
▁First	-2638
▁China	-2639
▁mount	-2640
▁fa	-2641
▁ut	-2642
▁temperature	-2643
ider	-2644
ford	-2645
ror	-2646
iers	-2647
ham	-2648
isions	-2649
ondon	-2650
ino	-2651
▁thous	-2652
▁log	-2653
▁talk	-2654
▁Sw	-2655
▁policy	-2656
▁comes	-2657
▁contain	-2658
uth	-2659
ana	-2660
▁Not	-2661
▁mechan	-2662
▁magn	-2663
▁General	-2664
oly	-2665
▁(200	-2666
ulated	-2667
▁lost	-2668
▁writing	-2669
▁shall	-2670
▁coast	-2671
▁lack	-2672
▁Us	-2673
-0	-2674
uk	-2675
▁online	-2676
▁variety	-2677
▁front	-2678
▁regular	-2679
▁Child	-2680
▁tur	-2681
▁Ro	-2682
▁Educ	-2683
▁appe	-2684
▁investig	-2685
undred	-2686
▁thing	-2687
▁Park	-2688
▁heat	-2689
▁face	-2690
▁continued	-2691
▁reve	-2692
irit	-2693
▁causes	-2694
reng	-2695
▁2009	-2696
▁Of	-2697
▁named	-2698
eed	-2699
▁target	-2700
▁immedi	-2701
▁simply	-2702
▁larger	-2703
▁points	-2704
▁reading	-2705
▁arri	-2706
rast	-2707
▁performance	-2708
▁Govern	-2709
▁cover	-2710
▁sil	-2711
▁serious	-2712
ls	-2713
▁foot	-2714
▁birth	-2715
rapy	-2716
▁labor	-2717
▁instit	-2718
▁demonst	-2719
▁soon	-2720
▁meaning	-2721
▁developing	-2722
▁forces	-2723
oor	-2724
▁Sch	-2725
▁Russ	-2726
haps	-2727
▁Christian	-2728
ctions	-2729
▁father	-2730
▁died	-2731
▁interact	-2732
▁191	-2733
▁psych	-2734
▁video	-2735
▁arm	-2736
ribution	-2737
den	-2738
elling	-2739
eks	-2740
▁i	-2741
inks	-2742
▁Art	-2743
▁2008	-2744
▁document	-2745
aily	-2746
ners	-2747
▁Inc	-2748
▁except	-2749
▁additional	-2750
leep	-2751
▁cit	-2752
▁wood	-2753
itude	-2754
▁ec	-2755
ON	-2756
ufact	-2757
ama	-2758
ellow	-2759
▁central	-2760
▁won	-2761
▁lives	-2762
▁nucle	-2763
▁host	-2764
aches	-2765
abet	-2766
▁India	-2767
IS	-2768
alu	-2769
▁Mich	-2770
▁animal	-2771
omet	-2772
rs	-2773
▁San	-2774
eration	-2775
▁mach	-2776
▁clean	-2777
uge	-2778
▁mess	-2779
▁vict	-2780
www	-2781
head	-2782
▁See	-2783
▁base	-2784
▁son	-2785
▁High	-2786
▁warm	-2787
▁brought	-2788
IN	-2789
▁nearly	-2790
▁encoura	-2791
▁wall	-2792
▁Since	-2793
▁books	-2794
▁Africa	-2795
▁Colle	-2796
OR	-2797
▁section	-2798
▁IS	-2799
▁continue	-2800
▁ir	-2801
▁Vir	-2802
itte	-2803
overy	-2804
ension	-2805
▁London	-2806
ises	-2807
▁br	-2808
▁largest	-2809
▁Sim	-2810
▁electric	-2811
▁ten	-2812
▁hor	-2813
light	-2814
▁located	-2815
ulf	-2816
ha	-2817
pper	-2818
▁African	-2819
ounds	-2820
craft	-2821
▁bab	-2822
▁implement	-2823
lied	-2824
▁therefore	-2825
osition	-2826
urg	-2827
gar	-2828
▁draw	-2829
▁leaders	-2830
▁mid	-2831
▁webs	-2832
▁Prog	-2833
ancy	-2834
▁epis	-2835
▁tele	-2836
▁extreme	-2837
▁attention	-2838
▁version	-2839
▁administ	-2840
▁dog	-2841
▁search	-2842
▁beginning	-2843
isl	-2844
80	-2845
We	-2846
ceed	-2847
▁x	-2848
▁started	-2849
▁positive	-2850
ulate	-2851
▁Here	-2852
▁culture	-2853
▁streng	-2854
▁gave	-2855
bum	-2856
pose	-2857
▁integ	-2858
cell	-2859
▁followed	-2860
▁primary	-2861
60	-2862
wise	-2863
see	-2864
▁concent	-2865
▁East	-2866
▁fru	-2867
▁skills	-2868
▁sus	-2869
▁compan	-2870
▁check	-2871
▁Your	-2872
▁hundred	-2873
▁length	-2874
▁192	-2875
ternet	-2876
anks	-2877
▁rock	-2878
ico	-2879
▁love	-2880
▁avoid	-2881
▁vacc	-2882
▁virus	-2883
▁weeks	-2884
▁behind	-2885
:1	-2886
▁eight	-2887
▁Americans	-2888
imum	-2889
▁prior	-2890
▁appropri	-2891
aling	-2892
▁tend	-2893
▁basic	-2894
▁Great	-2895
ica	-2896
▁features	-2897
▁1,	-2898
▁sites	-2899
▁methods	-2900
men	-2901
set	-2902
aly	-2903
▁born	-2904
▁defin	-2905
cks	-2906
▁sal	-2907
orge	-2908
▁fight	-2909
▁federal	-2910
▁leading	-2911
reet	-2912
",	-2913
omb	-2914
▁22	-2915
▁print	-2916
▁limited	-2917
used	-2918
▁directly	-2919
astic	-2920
omp	-2921
AN	-2922
▁Now	-2923
▁000	-2924
▁190	-2925
▁doing	-2926
osing	-2927
▁share	-2928
▁ox	-2929
ems	-2930
▁altern	-2931
edia	-2932
▁*	-2933
▁eth	-2934
▁commer	-2935
▁severe	-2936
▁bacter	-2937
▁Canada	-2938
rab	-2939
mar	-2940
▁private	-2941
▁reflect	-2942
▁religious	-2943
▁network	-2944
▁takes	-2945
inct	-2946
▁David	-2947
▁hyd	-2948
rael	-2949
ims	-2950
▁compon	-2951
formation	-2952
▁growing	-2953
fect	-2954
▁Ang	-2955
▁km	-2956
rest	-2957
ming	-2958
▁jud	-2959
▁traditional	-2960
▁eat	-2961
oming	-2962
▁poll	-2963
ription	-2964
▁aud	-2965
▁active	-2966
▁3.	-2967
▁prep	-2968
▁obt	-2969
▁healthy	-2970
olec	-2971
▁ice	-2972
▁Mex	-2973
▁etc	-2974
▁har	-2975
▁determine	-2976
▁James	-2977
ields	-2978
▁perm	-2979
▁manufact	-2980
▁2007	-2981
▁Because	-2982
▁ren	-2983
▁families	-2984
ought	-2985
▁destroy	-2986
uman	-2987
▁member	-2988
▁der	-2989
▁center	-2990
▁told	-2991
▁capital	-2992
▁Congress	-2993
iles	-2994
▁House	-2995
asons	-2996
▁saw	-2997
▁king	-2998
▁news	-2999
▁contribut	-3000
mosp	-3001
-3	-3002
▁safe	-3003
▁habit	-3004
ties	-3005
▁compared	-3006
▁Pat	-3007
▁Web	-3008
estic	-3009
aced	-3010
ald	-3011
▁star	-3012
▁identify	-3013
leb	-3014
rag	-3015
PA	-3016
▁safety	-3017
▁efforts	-3018
▁quite	-3019
aign	-3020
▁establish	-3021
▁sust	-3022
ula	-3023
▁Rober	-3024
alled	-3025
▁evalu	-3026
hest	-3027
▁rare	-3028
▁formed	-3029
▁moved	-3030
osure	-3031
▁ship	-3032
40	-3033
istry	-3034
▁remain	-3035
▁Coun	-3036
▁Air	-3037
▁contains	-3038
hy	-3039
ospital	-3040
rick	-3041
▁seems	-3042
erg	-3043
uries	-3044
▁veget	-3045
▁release	-3046
aters	-3047
▁dark	-3048
▁quickly	-3049
▁dang	-3050
ying	-3051
▁easy	-3052
inary	-3053
▁23	-3054
▁ideas	-3055
▁Red	-3056
▁hot	-3057
▁Cour	-3058
▁Australia	-3059
▁decre	-3060
▁agree	-3061
▁fuel	-3062
▁transport	-3063
yond	-3064
▁rapid	-3065
▁ult	-3066
▁humans	-3067
itch	-3068
▁correct	-3069
▁progress	-3070
ague	-3071
▁property	-3072
oke	-3073
▁lines	-3074
aid	-3075
▁storm	-3076
ference	-3077
▁bott	-3078
▁colon	-3079
▁communities	-3080
▁tests	-3081
▁mill	-3082
▁Even	-3083
▁trees	-3084
ils	-3085
room	-3086
▁album	-3087
▁Society	-3088
▁adop	-3089
▁Roman	-3090
▁carry	-3091
isms	-3092
gn	-3093
▁summer	-3094
▁Union	-3095
▁Israel	-3096
▁hon	-3097
▁earlier	-3098
▁got	-3099
▁cred	-3100
▁gradu	-3101
▁teachers	-3102
▁media	-3103
▁Arch	-3104
uments	-3105
▁highly	-3106
aces	-3107
rieved	-3108
▁Jewish	-3109
ara	-3110
▁elements	-3111
ittee	-3112
term	-3113
▁ang	-3114
▁dead	-3115
▁track	-3116
▁placed	-3117
▁lif	-3118
pe	-3119
bit	-3120
oes	-3121
IC	-3122
▁pen	-3123
▁laws	-3124
▁Sur	-3125
▁sequ	-3126
oe	-3127
▁Association	-3128
year	-3129
▁proced	-3130
▁pan	-3131
▁construction	-3132
▁inside	-3133
▁remains	-3134
▁speak	-3135
▁benefits	-3136
▁influence	-3137
▁interp	-3138
oses	-3139
anish	-3140
inese	-3141
▁tiss	-3142
▁Jes	-3143
off	-3144
▁images	-3145
▁minutes	-3146
▁hous	-3147
▁•	-3148
▁wa	-3149
▁solar	-3150
lies	-3151
▁else	-3152
▁agricult	-3153
ball	-3154
idents	-3155
▁harm	-3156
▁Law	-3157
▁screen	-3158
▁exec	-3159
▁impl	-3160
ocr	-3161
▁tree	-3162
▁court	-3163
▁workers	-3164
vision	-3165
▁rain	-3166
▁occup	-3167
omy	-3168
It	-3169
▁beg	-3170
▁ball	-3171
▁goal	-3172
▁189	-3173
▁allowed	-3174
aled	-3175
▁Mary	-3176
▁pp	-3177
▁Just	-3178
▁Dis	-3179
▁und	-3180
▁getting	-3181
▁George	-3182
▁Trans	-3183
▁doesn	-3184
omas	-3185
▁Over	-3186
arian	-3187
);	-3188
airs	-3189
itting	-3190
▁supply	-3191
▁stru	-3192
uff	-3193
▁date	-3194
life	-3195
▁feature	-3196
▁asked	-3197
▁dry	-3198
abetes	-3199
ixed	-3200
izations	-3201
▁west	-3202
▁rates	-3203
iency	-3204
▁Day	-3205
arr	-3206
▁evolution	-3207
▁foods	-3208
▁micro	-3209
▁eye	-3210
▁decision	-3211
▁easily	-3212
▁Mor	-3213
water	-3214
▁Journal	-3215
▁kids	-3216
oted	-3217
▁aware	-3218
▁hands	-3219
fficient	-3220
▁instru	-3221
▁cust	-3222
▁achieve	-3223
▁surround	-3224
▁toward	-3225
▁den	-3226
▁France	-3227
▁patient	-3228
▁approx	-3229
▁expected	-3230
▁transl	-3231
▁Fin	-3232
▁sleep	-3233
▁infection	-3234
▁trade	-3235
▁critical	-3236
itis	-3237
▁2000	-3238
▁stage	-3239
▁bit	-3240
▁Education	-3241
pped	-3242
▁tools	-3243
▁finan	-3244
▁quant	-3245
itect	-3246
▁inn	-3247
▁river	-3248
oring	-3249
▁nothing	-3250
▁difference	-3251
▁transm	-3252
▁cou	-3253
apter	-3254
▁kill	-3255
▁places	-3256
▁basis	-3257
▁ancient	-3258
ura	-3259
▁Val	-3260
▁speed	-3261
▁offer	-3262
▁church	-3263
ira	-3264
▁useful	-3265
▁billion	-3266
▁bal	-3267
▁186	-3268
ari	-3269
hens	-3270
▁appears	-3271
▁looking	-3272
▁bad	-3273
▁stress	-3274
▁Chinese	-3275
▁collection	-3276
▁60	-3277
▁demand	-3278
▁citiz	-3279
▁protection	-3280
▁clin	-3281
ously	-3282
▁pack	-3283
▁mag	-3284
ully	-3285
▁Spec	-3286
ingu	-3287
▁Commun	-3288
▁multiple	-3289
▁stay	-3290
▁System	-3291
▁feed	-3292
▁smaller	-3293
can	-3294
▁continu	-3295
▁Vol	-3296
▁adapt	-3297
▁office	-3298
▁middle	-3299
sec	-3300
▁purpose	-3301
▁NAS	-3302
▁Bi	-3303
rogen	-3304
▁discovered	-3305
▁projects	-3306
lam	-3307
▁seven	-3308
▁Black	-3309
▁vill	-3310
▁drink	-3311
▁extra	-3312
odies	-3313
▁2013	-3314
▁Germany	-3315
▁president	-3316
▁walk	-3317
rim	-3318
▁sch	-3319
▁Pal	-3320
▁Tex	-3321
▁mission	-3322
rees	-3323
EN	-3324
aught	-3325
▁laun	-3326
▁aspect	-3327
▁Also	-3328
atin	-3329
odes	-3330
▁older	-3331
aur	-3332
▁Techn	-3333
ste	-3334
▁stra	-3335
asion	-3336
cast	-3337
nes	-3338
▁daily	-3339
70	-3340
▁Paul	-3341
sect	-3342
▁noted	-3343
▁anti	-3344
▁Council	-3345
amer	-3346
▁gold	-3347
▁Japanese	-3348
▁killed	-3349
▁friends	-3350
▁companies	-3351
ky	-3352
▁Public	-3353
▁Read	-3354
▁file	-3355
▁atmosp	-3356
▁recently	-3357
antic	-3358
▁unique	-3359
▁Prot	-3360
▁worked	-3361
▁adj	-3362
▁mom	-3363
where	-3364
▁passed	-3365
▁respond	-3366
▁symb	-3367
vest	-3368
▁Green	-3369
wide	-3370
▁answer	-3371
▁Republic	-3372
▁east	-3373
▁phil	-3374
▁display	-3375
▁successful	-3376
▁Retrieved	-3377
▁towards	-3378
nown	-3379
▁crop	-3380
▁website	-3381
ament	-3382
▁effort	-3383
ords	-3384
▁diseases	-3385
▁objects	-3386
▁Another	-3387
▁standards	-3388
iece	-3389
▁played	-3390
▁exact	-3391
ession	-3392
▁acqu	-3393
▁fast	-3394
▁veh	-3395
In	-3396
▁unc	-3397
13	-3398
▁2006	-3399
▁situation	-3400
▁legal	-3401
▁costs	-3402
▁card	-3403
▁values	-3404
ef	-3405
▁woman	-3406
▁Each	-3407
▁cool	-3408
▁challeng	-3409
ender	-3410
lection	-3411
orders	-3412
▁appropriate	-3413
road	-3414
▁Western	-3415
▁birds	-3416
iques	-3417
▁capac	-3418
▁Rich	-3419
▁enj	-3420
▁molec	-3421
▁gun	-3422
▁expect	-3423
▁corn	-3424
▁Develop	-3425
▁Mod	-3426
▁People	-3427
▁names	-3428
▁Cur	-3429
▁mention	-3430
▁planet	-3431
▁HIV	-3432
▁becomes	-3433
▁College	-3434
▁security	-3435
▁Prof	-3436
▁drugs	-3437
▁table	-3438
rief	-3439
▁someone	-3440
▁hom	-3441
semb	-3442
hat	-3443
▁weather	-3444
▁eventually	-3445
▁Cath	-3446
▁Don	-3447
▁spirit	-3448
IT	-3449
osoph	-3450
▁adults	-3451
▁controll	-3452
▁memory	-3453
▁fram	-3454
▁currently	-3455
▁Inter	-3456
inated	-3457
▁campaign	-3458
▁Environment	-3459
izes	-3460
▁band	-3461
▁allows	-3462
ipment	-3463
▁acid	-3464
aint	-3465
▁games	-3466
▁predict	-3467
AC	-3468
▁Then	-3469
▁Hen	-3470
▁web	-3471
▁battle	-3472
▁Ob	-3473
▁sn	-3474
▁constit	-3475
enty	-3476
▁neigh	-3477
▁0.	-3478
▁party	-3479
▁beyond	-3480
▁legisl	-3481
▁write	-3482
iot	-3483
▁Our	-3484
▁location	-3485
▁rule	-3486
iest	-3487
▁reach	-3488
load	-3489
▁responsible	-3490
▁Bra	-3491
▁alone	-3492
▁announ	-3493
enth	-3494
▁Under	-3495
▁NASA	-3496
ype	-3497
▁Army	-3498
ida	-3499
▁pregn	-3500
▁believed	-3501
ext	-3502
▁status	-3503
atur	-3504
▁rise	-3505
▁DNA	-3506
▁contract	-3507
king	-3508
▁episode	-3509
▁block	-3510
arden	-3511
entially	-3512
▁radio	-3513
oma	-3514
▁cast	-3515
▁virt	-3516
▁served	-3517
ED	-3518
hemat	-3519
▁conflic	-3520
resh	-3521
irection	-3522
▁receive	-3523
▁reduced	-3524
▁ones	-3525
ests	-3526
▁Mars	-3527
que	-3528
ett	-3529
▁Are	-3530
▁Div	-3531
▁mis	-3532
▁insp	-3533
▁room	-3534
reed	-3535
▁genetic	-3536
rates	-3537
▁miss	-3538
▁celeb	-3539
▁28	-3540
▁Lou	-3541
▁majority	-3542
▁egg	-3543
encies	-3544
▁economy	-3545
▁Two	-3546
▁occurs	-3547
▁remained	-3548
▁gives	-3549
▁exercise	-3550
▁software	-3551
iar	-3552
▁application	-3553
udd	-3554
▁Off	-3555
▁Rel	-3556
▁changed	-3557
▁Virgin	-3558
imal	-3559
▁winter	-3560
▁teaching	-3561
▁tro	-3562
▁cultural	-3563
house	-3564
▁reports	-3565
II	-3566
oration	-3567
▁reached	-3568
su	-3569
ologies	-3570
vert	-3571
▁commercial	-3572
▁La	-3573
lor	-3574
▁performed	-3575
▁Robert	-3576
▁Water	-3577
▁cold	-3578
▁leave	-3579
▁foreign	-3580
▁testing	-3581
▁style	-3582
oyal	-3583
▁Mount	-3584
▁Tod	-3585
igned	-3586
▁Medic	-3587
▁purch	-3588
▁Je	-3589
▁Texas	-3590
▁perhaps	-3591
▁historical	-3592
▁peace	-3593
▁returned	-3594
▁UN	-3595
▁Inst	-3596
▁requires	-3597
▁records	-3598
ropical	-3599
gypt	-3600
▁deal	-3601
known	-3602
▁trib	-3603
▁Ste	-3604
▁heavy	-3605
▁highest	-3606
coh	-3607
▁27	-3608
ael	-3609
▁ensure	-3610
▁expand	-3611
▁Internet	-3612
rant	-3613
▁relatively	-3614
▁Dem	-3615
▁esc	-3616
▁Their	-3617
gery	-3618
▁Jesus	-3619
▁4.	-3620
back	-3621
▁construct	-3622
▁typically	-3623
▁code	-3624
▁Ser	-3625
▁equipment	-3626
▁Che	-3627
▁essential	-3628
25	-3629
▁anything	-3630
▁protein	-3631
▁analy	-3632
▁nuclear	-3633
ago	-3634
▁Jews	-3635
▁emot	-3636
bre	-3637
▁Program	-3638
▁pow	-3639
▁depend	-3640
▁Court	-3641
▁Museum	-3642
▁female	-3643
rical	-3644
▁southern	-3645
itz	-3646
▁degree	-3647
▁assist	-3648
▁Lord	-3649
equ	-3650
▁26	-3651
▁eyes	-3652
▁Port	-3653
bed	-3654
rition	-3655
▁staff	-3656
▁Why	-3657
▁enjoy	-3658
▁recorded	-3659
▁importance	-3660
▁Hol	-3661
▁advant	-3662
ocks	-3663
▁identified	-3664
▁estimated	-3665
▁carried	-3666
▁sam	-3667
▁illust	-3668
ensity	-3669
▁bul	-3670
▁repe	-3671
▁Rev	-3672
resp	-3673
-19	-3674
▁scale	-3675
AL	-3676
-4	-3677
▁breast	-3678
erved	-3679
ech	-3680
▁+	-3681
▁northern	-3682
▁(199	-3683
ibly	-3684
ager	-3685
▁whom	-3686
▁Island	-3687
▁CO	-3688
▁copy	-3689
co	-3690
olar	-3691
▁hyp	-3692
▁exposure	-3693
▁mer	-3694
▁race	-3695
▁station	-3696
▁pet	-3697
▁Thomas	-3698
▁Lear	-3699
▁adm	-3700
▁gir	-3701
▁organization	-3702
▁Thus	-3703
▁News	-3704
▁gene	-3705
▁vit	-3706
west	-3707
▁Egypt	-3708
▁Dec	-3709
▁Mart	-3710
eles	-3711
ellig	-3712
▁assum	-3713
▁Service	-3714
▁showed	-3715
▁Bel	-3716
▁Av	-3717
▁monitor	-3718
▁separate	-3719
ears	-3720
▁Miss	-3721
▁processes	-3722
▁reb	-3723
▁approximately	-3724
phas	-3725
▁completely	-3726
▁consequ	-3727
orial	-3728
15	-3729
▁Government	-3730
▁fair	-3731
▁Atl	-3732
▁financial	-3733
atab	-3734
▁leaves	-3735
▁hope	-3736
▁2005	-3737
▁imag	-3738
▁professional	-3739
▁bound	-3740
▁flood	-3741
book	-3742
▁coming	-3743
▁friend	-3744
▁negative	-3745
▁transfer	-3746
▁turned	-3747
come	-3748
▁Nav	-3749
▁unit	-3750
▁moving	-3751
▁exhib	-3752
▁affected	-3753
▁minor	-3754
▁conv	-3755
ologist	-3756
iny	-3757
ken	-3758
▁swe	-3759
bert	-3760
▁direction	-3761
ector	-3762
▁tour	-3763
▁Found	-3764
acific	-3765
oud	-3766
▁providing	-3767
▁Ber	-3768
▁Children	-3769
▁models	-3770
▁user	-3771
▁differences	-3772
itable	-3773
time	-3774
▁trad	-3775
▁Sub	-3776
iments	-3777
▁Sen	-3778
BN	-3779
▁rat	-3780
DA	-3781
▁plans	-3782
▁mut	-3783
▁strateg	-3784
▁immediately	-3785
▁compar	-3786
▁vo	-3787
▁survey	-3788
▁Inf	-3789
vant	-3790
▁tou	-3791
▁measures	-3792
▁Jer	-3793
raw	-3794
▁introduced	-3795
▁trying	-3796
▁cru	-3797
▁techniques	-3798
▁sem	-3799
▁cities	-3800
▁via	-3801
▁enter	-3802
▁Aut	-3803
ander	-3804
fort	-3805
▁Use	-3806
▁presented	-3807
▁helps	-3808
▁applications	-3809
ped	-3810
▁stream	-3811
bl	-3812
200	-3813
This	-3814
li	-3815
▁Mal	-3816
▁journal	-3817
▁categ	-3818
▁favor	-3819
▁Ev	-3820
EC	-3821
win	-3822
▁male	-3823
▁native	-3824
▁bacteria	-3825
▁powerful	-3826
▁presence	-3827
▁Mark	-3828
▁thousands	-3829
▁incor	-3830
more	-3831
uted	-3832
▁sac	-3833
▁waste	-3834
▁regions	-3835
pris	-3836
▁tox	-3837
porary	-3838
▁distance	-3839
field	-3840
ville	-3841
▁Smith	-3842
ographic	-3843
▁novel	-3844
icip	-3845
▁decided	-3846
▁goes	-3847
▁equal	-3848
▁Post	-3849
▁architect	-3850
▁Mil	-3851
▁diabetes	-3852
▁Mr	-3853
▁Greek	-3854
▁territ	-3855
▁meeting	-3856
▁running	-3857
▁recommend	-3858
▁radiation	-3859
essel	-3860
▁applied	-3861
▁rules	-3862
uls	-3863
▁max	-3864
iated	-3865
ees	-3866
▁lived	-3867
▁match	-3868
▁device	-3869
▁White	-3870
cles	-3871
▁appoint	-3872
▁suggests	-3873
key	-3874
▁limit	-3875
▁completed	-3876
opy	-3877
▁Project	-3878
▁element	-3879
▁80	-3880
▁baby	-3881
▁lat	-3882
▁Mexico	-3883
▁commonly	-3884
▁Sun	-3885
▁units	-3886
wor	-3887
isher	-3888
▁beaut	-3889
▁island	-3890
▁solution	-3891
astern	-3892
aker	-3893
▁Human	-3894
▁teacher	-3895
wood	-3896
▁appeared	-3897
▁brother	-3898
▁sustain	-3899
▁wanted	-3900
▁director	-3901
▁constant	-3902
cohol	-3903
▁belief	-3904
iring	-3905
▁Medical	-3906
▁freed	-3907
▁benefit	-3908
▁army	-3909
▁Scient	-3910
cers	-3911
▁creating	-3912
▁therapy	-3913
▁overall	-3914
rations	-3915
▁Spanish	-3916
▁Plan	-3917
▁observed	-3918
▁upper	-3919
▁mig	-3920
▁Bay	-3921
leg	-3922
▁comment	-3923
▁faith	-3924
▁Up	-3925
▁map	-3926
▁annual	-3927
▁slight	-3928
▁everything	-3929
enge	-3930
ologists	-3931
▁arr	-3932
ogen	-3933
▁shape	-3934
osy	-3935
▁alt	-3936
▁reasons	-3937
▁existing	-3938
▁doub	-3939
▁emissions	-3940
erate	-3941
iant	-3942
▁Net	-3943
▁findings	-3944
▁Flor	-3945
▁stated	-3946
▁hur	-3947
▁Once	-3948
▁joint	-3949
ams	-3950
berg	-3951
▁blue	-3952
▁citizens	-3953
▁Fore	-3954
▁opportunity	-3955
ero	-3956
▁bra	-3957
▁29	-3958
▁Let	-3959
▁dram	-3960
▁interesting	-3961
▁188	-3962
▁symbol	-3963
▁cand	-3964
▁box	-3965
edic	-3966
ception	-3967
▁grant	-3968
▁illness	-3969
▁Bu	-3970
▁Its	-3971
▁Mac	-3972
▁operations	-3973
▁thinking	-3974
St	-3975
▁Gra	-3976
▁fif	-3977
▁figure	-3978
▁giving	-3979
change	-3980
▁round	-3981
▁spring	-3982
▁actions	-3983
▁reference	-3984
▁capacity	-3985
ault	-3986
hors	-3987
ux	-3988
▁TH	-3989
ects	-3990
▁Charles	-3991
rog	-3992
▁mental	-3993
▁Pacific	-3994
▁strength	-3995
▁chance	-3996
▁defined	-3997
▁conducted	-3998
pire	-3999
▁nor	-4000
gency	-4001
▁ISBN	-4002
▁rob	-4003
cious	-4004
▁price	-4005
▁Today	-4006
▁qual	-4007
ocal	-4008
▁practices	-4009
▁bran	-4010
▁didn	-4011
▁picture	-4012
▁>	-4013
▁Met	-4014
▁board	-4015
▁Second	-4016
force	-4017
▁career	-4018
rupt	-4019
▁note	-4020
imens	-4021
ribute	-4022
▁title	-4023
▁fully	-4024
▁(3	-4025
▁Civil	-4026
▁rul	-4027
zz	-4028
▁populations	-4029
▁Old	-4030
▁autom	-4031
▁vessel	-4032
ares	-4033
▁buildings	-4034
▁piece	-4035
iable	-4036
▁spent	-4037
▁Tur	-4038
▁letter	-4039
▁forward	-4040
▁treated	-4041
rian	-4042
▁Mic	-4043
▁stories	-4044
▁initial	-4045
▁ocean	-4046
ST	-4047
▁rich	-4048
▁independent	-4049
▁covered	-4050
▁Henry	-4051
▁breat	-4052
rome	-4053
▁tum	-4054
mark	-4055
▁users	-4056
acters	-4057
▁eating	-4058
▁examples	-4059
▁custom	-4060
▁spect	-4061
78	-4062
▁Di	-4063
14	-4064
▁About	-4065
▁Space	-4066
▁tub	-4067
▁visual	-4068
▁previously	-4069
▁felt	-4070
▁removed	-4071
▁educational	-4072
▁disp	-4073
18	-4074
▁devices	-4075
▁collabor	-4076
▁watch	-4077
▁1990	-4078
▁]	-4079
-8	-4080
▁proposed	-4081
▁Mass	-4082
▁maintain	-4083
▁aircraft	-4084
▁poly	-4085
▁physic	-4086
▁serve	-4087
16	-4088
▁emphas	-4089
▁Sam	-4090
▁infl	-4091
apers	-4092
▁Virginia	-4093
▁wife	-4094
▁divid	-4095
▁conclud	-4096
idel	-4097
▁Test	-4098
▁Catholic	-4099
▁fresh	-4100
▁forced	-4101
▁professor	-4102
▁attract	-4103
▁saying	-4104
▁contrast	-4105
-5	-4106
▁Nor	-4107
▁Sou	-4108
▁medicine	-4109
▁Jose	-4110
▁quar	-4111
▁express	-4112
▁moment	-4113
▁influen	-4114
▁Sal	-4115
iverse	-4116
▁Commission	-4117
▁tissue	-4118
▁distribution	-4119
aughter	-4120
oviet	-4121
▁industrial	-4122
▁sexual	-4123
▁2004	-4124
▁Both	-4125
▁decades	-4126
▁critic	-4127
za	-4128
▁income	-4129
▁liber	-4130
▁fruit	-4131
▁rail	-4132
▁helped	-4133
▁drop	-4134
▁Development	-4135
▁intended	-4136
SA	-4137
itness	-4138
▁fields	-4139
▁park	-4140
stitution	-4141
▁hop	-4142
▁instance	-4143
▁details	-4144
▁becoming	-4145
▁occurred	-4146
clus	-4147
▁Britain	-4148
ht	-4149
▁load	-4150
riage	-4151
▁organizations	-4152
ios	-4153
▁subsequ	-4154
▁notes	-4155
▁Wil	-4156
▁bank	-4157
▁generation	-4158
▁Def	-4159
▁widely	-4160
▁opin	-4161
▁factor	-4162
▁increases	-4163
▁worth	-4164
▁waters	-4165
▁communication	-4166
▁Dist	-4167
▁characters	-4168
related	-4169
▁enh	-4170
▁wond	-4171
eces	-4172
nel	-4173
ras	-4174
▁Cle	-4175
▁Direct	-4176
▁70	-4177
▁academ	-4178
▁graph	-4179
ET	-4180
▁Lake	-4181
▁experien	-4182
▁Social	-4183
▁creation	-4184
board	-4185
▁choice	-4186
▁numerous	-4187
▁structures	-4188
▁UK	-4189
iate	-4190
▁brief	-4191
abilities	-4192
respond	-4193
▁strugg	-4194
▁distinct	-4195
▁Ap	-4196
oo	-4197
▁supported	-4198
rehens	-4199
▁mouth	-4200
▁pun	-4201
van	-4202
▁perfect	-4203
▁stars	-4204
▁functions	-4205
▁agg	-4206
▁Louis	-4207
aped	-4208
▁ign	-4209
▁Ir	-4210
ias	-4211
ria	-4212
BC	-4213
▁western	-4214
▁religion	-4215
umn	-4216
▁Histor	-4217
▁thick	-4218
▁instruct	-4219
ii	-4220
olved	-4221
▁famous	-4222
well	-4223
▁Som	-4224
▁sugar	-4225
▁actual	-4226
▁cry	-4227
▁context	-4228
▁referred	-4229
▁household	-4230
▁Pri	-4231
ado	-4232
▁square	-4233
▁confirm	-4234
▁offers	-4235
▁trou	-4236
▁Soviet	-4237
▁chief	-4238
▁mi	-4239
▁Central	-4240
▁degrees	-4241
▁univers	-4242
rec	-4243
▁Michael	-4244
utive	-4245
▁patterns	-4246
▁rot	-4247
▁counter	-4248
▁antib	-4249
▁scen	-4250
▁college	-4251
▁hospital	-4252
mp	-4253
▁Conf	-4254
▁failure	-4255
▁fle	-4256
▁Bas	-4257
▁pick	-4258
▁phen	-4259
▁Islam	-4260
▁Information	-4261
▁mal	-4262
arrow	-4263
ocol	-4264
▁Wind	-4265
▁Jud	-4266
▁mostly	-4267
ygen	-4268
▁determined	-4269
▁Phys	-4270
▁frequently	-4271
▁properties	-4272
▁bone	-4273
▁surgery	-4274
▁dyn	-4275
arge	-4276
ortion	-4277
▁truth	-4278
▁Carol	-4279
▁resulting	-4280
▁Work	-4281
▁mob	-4282
▁Bro	-4283
▁iron	-4284
▁originally	-4285
essor	-4286
▁hair	-4287
ifically	-4288
nam	-4289
▁officials	-4290
▁enem	-4291
____	-4292
▁Mad	-4293
▁conservation	-4294
▁alternative	-4295
▁goals	-4296
▁planning	-4297
▁Group	-4298
▁Energy	-4299
▁kept	-4300
▁insect	-4301
▁machine	-4302
omin	-4303
▁learned	-4304
▁replace	-4305
▁Arab	-4306
uit	-4307
▁signs	-4308
▁kil	-4309
lick	-4310
▁task	-4311
▁troops	-4312
▁Academ	-4313
▁90	-4314
▁urban	-4315
▁Medicine	-4316
▁discussion	-4317
▁everyone	-4318
▁hour	-4319
ensus	-4320
▁defe	-4321
▁Australian	-4322
▁sand	-4323
omic	-4324
▁Library	-4325
▁temperatures	-4326
▁Que	-4327
▁Street	-4328
▁35	-4329
▁Company	-4330
▁vision	-4331
aus	-4332
▁atmosphere	-4333
kin	-4334
▁Franc	-4335
▁suggested	-4336
▁reprodu	-4337
▁resource	-4338
igure	-4339
▁nav	-4340
▁bodies	-4341
▁operation	-4342
▁fear	-4343
▁coal	-4344
▁explain	-4345
▁fort	-4346
▁wrong	-4347
▁clearly	-4348
▁extremely	-4349
▁Hel	-4350
▁circum	-4351
▁Sl	-4352
ij	-4353
och	-4354
▁inh	-4355
▁sav	-4356
▁Bur	-4357
ching	-4358
▁chart	-4359
▁isn	-4360
lease	-4361
▁Latin	-4362
▁secret	-4363
▁Columb	-4364
▁significantly	-4365
▁ships	-4366
Ch	-4367
▁Alex	-4368
fall	-4369
▁cook	-4370
▁articles	-4371
ributed	-4372
▁volunt	-4373
▁pil	-4374
▁disorder	-4375
▁literature	-4376
▁Florida	-4377
gl	-4378
90	-4379
▁authors	-4380
▁Mont	-4381
▁authority	-4382
▁save	-4383
▁Wild	-4384
▁teach	-4385
▁Dan	-4386
▁absor	-4387
▁genes	-4388
rane	-4389
gal	-4390
▁susp	-4391
AM	-4392
▁vary	-4393
▁Organ	-4394
▁2,	-4395
▁clinical	-4396
▁187	-4397
▁speech	-4398
▁digital	-4399
▁Like	-4400
▁Every	-4401
▁Ter	-4402
▁message	-4403
orage	-4404
▁du	-4405
▁CD	-4406
▁philosoph	-4407
▁glass	-4408
▁metal	-4409
▁prison	-4410
▁resistance	-4411
▁%	-4412
yd	-4413
▁experiment	-4414
▁Asia	-4415
▁Mem	-4416
▁hit	-4417
▁largely	-4418
▁immune	-4419
▁consumption	-4420
▁doll	-4421
▁cere	-4422
▁persons	-4423
▁apparent	-4424
▁pric	-4425
▁alcohol	-4426
▁behavi	-4427
ston	-4428
erences	-4429
lim	-4430
▁weak	-4431
▁accur	-4432
▁Land	-4433
cont	-4434
▁185	-4435
met	-4436
▁steps	-4437
illing	-4438
▁electricity	-4439
alle	-4440
▁Rem	-4441
▁complic	-4442
▁peak	-4443
▁Despite	-4444
▁gain	-4445
▁mathemat	-4446
▁finding	-4447
▁foss	-4448
▁promot	-4449
17	-4450
▁dro	-4451
▁Sea	-4452
▁Fam	-4453
▁unf	-4454
atically	-4455
▁huge	-4456
▁datab	-4457
▁Food	-4458
▁Labor	-4459
▁bottom	-4460
▁2003	-4461
▁Out	-4462
▁diss	-4463
ressive	-4464
▁choose	-4465
▁causing	-4466
rison	-4467
ev	-4468
▁(18	-4469
▁correspond	-4470
▁pages	-4471
▁raised	-4472
▁aim	-4473
▁fert	-4474
▁Brown	-4475
▁belong	-4476
▁sample	-4477
▁grand	-4478
crib	-4479
▁pra	-4480
▁Life	-4481
▁liqu	-4482
▁astron	-4483
▁incorpor	-4484
▁remember	-4485
▁primarily	-4486
hips	-4487
▁opened	-4488
▁offered	-4489
▁Further	-4490
▁meant	-4491
▁Elect	-4492
▁prepar	-4493
▁starting	-4494
▁5.	-4495
▁kid	-4496
▁die	-4497
▁statement	-4498
▁requirements	-4499
▁Op	-4500
iox	-4501
ota	-4502
▁leader	-4503
onic	-4504
▁components	-4505
▁stim	-4506
▁depression	-4507
name	-4508
▁rang	-4509
▁wear	-4510
tical	-4511
▁Peter	-4512
▁combination	-4513
▁homes	-4514
▁volume	-4515
itors	-4516
▁Chic	-4517
▁burn	-4518
▁upd	-4519
▁drive	-4520
▁Division	-4521
▁background	-4522
▁interview	-4523
unction	-4524
▁Office	-4525
burg	-4526
▁items	-4527
ieces	-4528
▁god	-4529
▁efficient	-4530
▁guide	-4531
▁lic	-4532
cript	-4533
osen	-4534
▁partners	-4535
igen	-4536
▁Review	-4537
▁convers	-4538
▁weap	-4539
▁Sum	-4540
▁freedom	-4541
azine	-4542
▁bill	-4543
▁Stand	-4544
othes	-4545
oper	-4546
▁finally	-4547
▁lung	-4548
▁advanced	-4549
rence	-4550
▁cra	-4551
▁recommended	-4552
ya	-4553
▁Treat	-4554
▁intellig	-4555
▁mo	-4556
▁internal	-4557
nic	-4558
▁Federal	-4559
▁Frank	-4560
▁Mo	-4561
▁existence	-4562
ishing	-4563
▁request	-4564
▁despite	-4565
▁Book	-4566
▁isol	-4567
22	-4568
▁disapp	-4569
▁pal	-4570
▁Class	-4571
▁mel	-4572
▁MD	-4573
ormal	-4574
ndrome	-4575
▁announced	-4576
▁Students	-4577
roph	-4578
▁bed	-4579
osa	-4580
▁fine	-4581
▁prefer	-4582
▁conver	-4583
▁milk	-4584
▁fol	-4585
▁Women	-4586
-6	-4587
▁Rad	-4588
▁violence	-4589
▁Russian	-4590
ki	-4591
isation	-4592
▁oxygen	-4593
atric	-4594
▁double	-4595
▁Bet	-4596
▁advantage	-4597
....	-4598
▁technologies	-4599
ss	-4600
▁2001	-4601
▁500	-4602
▁continues	-4603
▁prepared	-4604
▁sen	-4605
▁Gold	-4606
▁Kore	-4607
▁latter	-4608
▁classes	-4609
▁heard	-4610
ishes	-4611
▁cycle	-4612
▁aspects	-4613
▁greatest	-4614
▁institutions	-4615
▁Ben	-4616
▁store	-4617
▁tim	-4618
▁Joseph	-4619
iful	-4620
▁Hall	-4621
ework	-4622
ingly	-4623
▁2002	-4624
▁hear	-4625
▁begins	-4626
▁Ken	-4627
▁Royal	-4628
▁setting	-4629
▁combined	-4630
▁substant	-4631
▁conflict	-4632
▁policies	-4633
RO	-4634
▁anyone	-4635
poses	-4636
unk	-4637
▁formation	-4638
PS	-4639
eal	-4640
▁Br	-4641
▁Such	-4642
▁trial	-4643
▁interpret	-4644
▁wet	-4645
▁involve	-4646
icy	-4647
cycl	-4648
heast	-4649
▁Follow	-4650
▁detect	-4651
ented	-4652
▁elimin	-4653
▁reform	-4654
▁Disc	-4655
▁player	-4656
▁excess	-4657
▁playing	-4658
chers	-4659
▁exposed	-4660
rows	-4661
istan	-4662
▁please	-4663
▁characteristics	-4664
▁police	-4665
▁1980	-4666
aste	-4667
olid	-4668
▁vot	-4669
▁charge	-4670
▁selected	-4671
▁failed	-4672
▁Middle	-4673
rosc	-4674
RE	-4675
▁fell	-4676
inter	-4677
▁Richard	-4678
icit	-4679
▁Dar	-4680
▁organic	-4681
▁regarding	-4682
osystem	-4683
▁challenge	-4684
uro	-4685
▁sort	-4686
▁portion	-4687
▁somew	-4688
▁replaced	-4689
▁television	-4690
▁Note	-4691
band	-4692
otic	-4693
▁clim	-4694
▁spot	-4695
▁soldiers	-4696
▁improved	-4697
▁camer	-4698
▁perman	-4699
▁Foundation	-4700
▁changing	-4701
▁Committee	-4702
▁attacks	-4703
▁concern	-4704
gra	-4705
part	-4706
▁Ann	-4707
▁trend	-4708
▁Oh	-4709
▁sufficient	-4710
CC	-4711
▁extent	-4712
▁bird	-4713
▁coord	-4714
▁manner	-4715
rum	-4716
▁synt	-4717
roke	-4718
▁grass	-4719
▁Well	-4720
raction	-4721
▁morning	-4722
▁wealth	-4723
▁domestic	-4724
▁disorders	-4725
▁Times	-4726
▁motion	-4727
▁snow	-4728
med	-4729
▁injury	-4730
▁opportunities	-4731
▁ban	-4732
▁solid	-4733
ny	-4734
iled	-4735
▁output	-4736
▁award	-4737
▁Pub	-4738
ications	-4739
▁appearance	-4740
▁opening	-4741
▁surpris	-4742
▁Del	-4743
▁syn	-4744
pan	-4745
▁aid	-4746
▁Dise	-4747
liam	-4748
▁Ill	-4749
▁interested	-4750
osc	-4751
▁Bill	-4752
mal	-4753
ieties	-4754
▁dut	-4755
▁eastern	-4756
▁AD	-4757
▁batter	-4758
▁flight	-4759
▁instrument	-4760
▁happen	-4761
▁layer	-4762
▁Southern	-4763
▁Environmental	-4764
mit	-4765
▁Ox	-4766
▁core	-4767
▁Using	-4768
uration	-4769
▁balance	-4770
▁technical	-4771
iveness	-4772
▁contem	-4773
▁mere	-4774
▁apply	-4775
▁divided	-4776
▁infections	-4777
▁flag	-4778
rich	-4779
akers	-4780
ulating	-4781
alog	-4782
▁Chicago	-4783
▁prem	-4784
inger	-4785
▁concerns	-4786
▁gar	-4787
▁Step	-4788
▁facilities	-4789
▁bud	-4790
▁Early	-4791
▁nine	-4792
▁Fort	-4793
▁vaccine	-4794
▁garden	-4795
▁leaving	-4796
▁seed	-4797
RI	-4798
▁decisions	-4799
▁Camb	-4800
olars	-4801
▁purposes	-4802
sey	-4803
ifying	-4804
▁claims	-4805
▁connect	-4806
rier	-4807
▁remaining	-4808
45	-4809
▁joined	-4810
▁Canadian	-4811
▁centuries	-4812
▁innov	-4813
▁tried	-4814
▁collected	-4815
▁shar	-4816
▁immig	-4817
▁pret	-4818
▁links	-4819
lers	-4820
lements	-4821
▁accomp	-4822
itage	-4823
▁rough	-4824
▁principles	-4825
▁exactly	-4826
▁Last	-4827
ocratic	-4828
ship	-4829
▁owners	-4830
▁languages	-4831
▁cris	-4832
vis	-4833
▁recognized	-4834
▁www	-4835
▁Technology	-4836
▁nations	-4837
▁shot	-4838
liament	-4839
▁rank	-4840
▁destroyed	-4841
▁mentioned	-4842
▁obvious	-4843
▁slightly	-4844
▁45	-4845
▁bow	-4846
▁habitat	-4847
▁height	-4848
▁advance	-4849
rust	-4850
▁pieces	-4851
▁assessment	-4852
ctic	-4853
▁connection	-4854
tle	-4855
olf	-4856
oser	-4857
cription	-4858
▁indicate	-4859
pective	-4860
▁spl	-4861
▁Only	-4862
inet	-4863
▁tropical	-4864
▁reality	-4865
▁Camp	-4866
▁install	-4867
ructure	-4868
▁amounts	-4869
▁1970	-4870
▁Penn	-4871
state	-4872
▁Mill	-4873
▁Long	-4874
▁remove	-4875
standing	-4876
▁farmers	-4877
▁reaction	-4878
ona	-4879
▁email	-4880
▁signal	-4881
▁gal	-4882
▁Mag	-4883
htm	-4884
▁Pers	-4885
▁classroom	-4886
▁mort	-4887
MS	-4888
▁satell	-4889
▁engineering	-4890
▁inches	-4891
▁stone	-4892
ato	-4893
23	-4894
sembly	-4895
ication	-4896
▁library	-4897
▁options	-4898
▁Road	-4899
▁expression	-4900
▁agricultural	-4901
urance	-4902
▁operating	-4903
75	-4904
▁containing	-4905
▁Vict	-4906
oking	-4907
inn	-4908
▁yellow	-4909
▁accepted	-4910
add	-4911
rating	-4912
▁explained	-4913
▁Through	-4914
▁voice	-4915
▁mainly	-4916
▁phase	-4917
▁consult	-4918
▁allowing	-4919
▁phenomen	-4920
▁listed	-4921
▁Back	-4922
▁youth	-4923
▁manufacture	-4924
▁sides	-4925
2)	-4926
▁muscle	-4927
▁storage	-4928
▁club	-4929
▁Ocean	-4930
▁studied	-4931
▁Pet	-4932
▁buy	-4933
▁linked	-4934
agues	-4935
▁300	-4936
▁mur	-4937
▁toxic	-4938
▁describe	-4939
▁explore	-4940
▁technique	-4941
alian	-4942
OT	-4943
▁excell	-4944
▁experiences	-4945
works	-4946
▁Any	-4947
▁crew	-4948
▁arrived	-4949
▁connected	-4950
▁strategies	-4951
ulum	-4952
ossible	-4953
▁detailed	-4954
▁discover	-4955
▁revolution	-4956
▁landsc	-4957
▁Fe	-4958
iology	-4959
▁samples	-4960
▁dangerous	-4961
▁encourage	-4962
iance	-4963
▁pul	-4964
▁prices	-4965
▁sed	-4966
▁paid	-4967
▁click	-4968
▁experts	-4969
ena	-4970
▁controlled	-4971
▁Before	-4972
▁discip	-4973
▁particles	-4974
▁Budd	-4975
▁ready	-4976
▁eggs	-4977
rus	-4978
▁district	-4979
▁AN	-4980
▁follows	-4981
▁gets	-4982
▁diagnosis	-4983
▁rapidly	-4984
ilit	-4985
▁gall	-4986
lines	-4987
▁chronic	-4988
▁route	-4989
▁emergency	-4990
▁bright	-4991
▁newsp	-4992
24	-4993
OS	-4994
▁comprehens	-4995
▁Mat	-4996
ipped	-4997
▁renew	-4998
hetic	-4999
▁Prov	-5000
▁extended	-5001
▁Scott	-5002
▁mist	-5003
▁promote	-5004
▁dial	-5005
iders	-5006
▁challenges	-5007
▁definition	-5008
▁Rob	-5009
iling	-5010
▁convent	-5011
▁III	-5012
itan	-5013
▁nutri	-5014
▁fourth	-5015
▁distingu	-5016
▁letters	-5017
stein	-5018
▁nan	-5019
amental	-5020
▁surrounding	-5021
▁batt	-5022
▁Tem	-5023
bal	-5024
▁elev	-5025
▁input	-5026
▁Econom	-5027
▁subjects	-5028
▁reducing	-5029
▁otherwise	-5030
▁knew	-5031
▁discovery	-5032
▁Pan	-5033
▁agencies	-5034
▁trust	-5035
▁arms	-5036
▁players	-5037
26	-5038
▁master	-5039
lig	-5040
▁motor	-5041
▁nutrition	-5042
AP	-5043
icial	-5044
▁Haw	-5045
▁Wood	-5046
▁Rock	-5047
▁Kingdom	-5048
ping	-5049
▁participants	-5050
▁village	-5051
▁chemicals	-5052
▁easier	-5053
▁stem	-5054
▁Yet	-5055
▁ran	-5056
rovers	-5057
▁residents	-5058
▁floor	-5059
▁frequency	-5060
▁procedure	-5061
▁onto	-5062
▁risks	-5063
▁adopted	-5064
gment	-5065
▁neighbor	-5066
▁vitamin	-5067
▁universe	-5068
▁thin	-5069
▁THE	-5070
osite	-5071
▁vast	-5072
▁trig	-5073
35	-5074
▁showing	-5075
▁revealed	-5076
▁narrow	-5077
▁experienced	-5078
▁Common	-5079
▁Psych	-5080
▁biological	-5081
down	-5082
▁184	-5083
▁runs	-5084
▁yourself	-5085
▁Those	-5086
▁explan	-5087
▁mm	-5088
▁mamm	-5089
▁root	-5090
▁Natural	-5091
▁closely	-5092
▁maximum	-5093
cyclop	-5094
olute	-5095
▁Atlantic	-5096
▁hundreds	-5097
ricane	-5098
idelines	-5099
cher	-5100
▁chann	-5101
▁deaths	-5102
ellect	-5103
▁views	-5104
tes	-5105
▁reject	-5106
col	-5107
▁tail	-5108
rete	-5109
▁lands	-5110
▁Tor	-5111
▁Constitution	-5112
▁31	-5113
▁credit	-5114
▁vul	-5115
▁scene	-5116
▁Ham	-5117
rolog	-5118
▁measured	-5119
▁reduction	-5120
▁roll	-5121
▁meat	-5122
teen	-5123
▁candid	-5124
▁mountain	-5125
going	-5126
▁hunt	-5127
▁Engine	-5128
▁documents	-5129
zing	-5130
▁issued	-5131
▁Supp	-5132
▁county	-5133
des	-5134
tion	-5135
▁horse	-5136
▁twenty	-5137
▁Carolina	-5138
▁looked	-5139
▁typical	-5140
▁warming	-5141
▁suc	-5142
iced	-5143
▁Professor	-5144
▁domin	-5145
▁shell	-5146
▁concerned	-5147
▁End	-5148
▁BC	-5149
▁pray	-5150
▁obtained	-5151
▁Academy	-5152
▁funding	-5153
▁Studies	-5154
▁academic	-5155
▁Expl	-5156
▁adjust	-5157
▁houses	-5158
▁extensive	-5159
▁rural	-5160
▁married	-5161
▁marked	-5162
zy	-5163
▁Georg	-5164
▁diam	-5165
▁Rights	-5166
ka	-5167
▁ancest	-5168
hi	-5169
▁Du	-5170
▁periods	-5171
▁involves	-5172
▁ST	-5173
▁election	-5174
▁strate	-5175
ava	-5176
body	-5177
▁strategy	-5178
▁files	-5179
▁transform	-5180
▁Pop	-5181
▁1960	-5182
▁Among	-5183
pat	-5184
▁jobs	-5185
▁Therefore	-5186
active	-5187
▁send	-5188
▁Party	-5189
1)	-5190
▁straight	-5191
▁resist	-5192
▁seek	-5193
▁Administ	-5194
▁Phot	-5195
▁ft	-5196
▁Bre	-5197
▁electrical	-5198
▁administration	-5199
▁practical	-5200
▁relationships	-5201
▁initi	-5202
▁Nature	-5203
▁calls	-5204
▁train	-5205
▁unknown	-5206
ortunately	-5207
▁Ep	-5208
ompl	-5209
ican	-5210
▁depth	-5211
▁marriage	-5212
▁Rome	-5213
▁neut	-5214
▁Where	-5215
▁increasingly	-5216
▁sin	-5217
▁looks	-5218
▁certainly	-5219
▁Good	-5220
▁pollution	-5221
▁1999	-5222
ansion	-5223
point	-5224
kins	-5225
▁closed	-5226
▁flat	-5227
▁Id	-5228
▁argument	-5229
▁responsibility	-5230
▁Sever	-5231
▁expert	-5232
▁regional	-5233
▁Hill	-5234
▁walls	-5235
AA	-5236
▁Kh	-5237
▁dedic	-5238
▁entirely	-5239
war	-5240
▁Report	-5241
ga	-5242
▁lit	-5243
▁consists	-5244
▁Home	-5245
▁Const	-5246
umber	-5247
▁cert	-5248
▁moral	-5249
ini	-5250
▁kinds	-5251
▁founded	-5252
▁drinking	-5253
verty	-5254
▁ended	-5255
▁figures	-5256
▁protected	-5257
IDS	-5258
▁entered	-5259
▁Gal	-5260
▁Top	-5261
▁poverty	-5262
la	-5263
▁Bible	-5264
▁moon	-5265
▁chapter	-5266
▁label	-5267
▁Instead	-5268
▁effectively	-5269
EL	-5270
anta	-5271
▁vent	-5272
▁Grand	-5273
▁shared	-5274
▁daughter	-5275
▁tow	-5276
stream	-5277
▁possibly	-5278
▁Stat	-5279
▁forests	-5280
pass	-5281
▁taught	-5282
▁accompl	-5283
▁concepts	-5284
▁ecosystem	-5285
erves	-5286
RC	-5287
clusion	-5288
▁wave	-5289
▁stock	-5290
▁Find	-5291
28	-5292
▁advoc	-5293
▁equival	-5294
▁syndrome	-5295
▁selection	-5296
▁sets	-5297
▁interests	-5298
▁crops	-5299
33	-5300
▁Martin	-5301
▁efficiency	-5302
▁satis	-5303
▁horm	-5304
▁liquid	-5305
emic	-5306
▁frag	-5307
ctor	-5308
▁6.	-5309
imer	-5310
AD	-5311
▁mix	-5312
▁script	-5313
▁happens	-5314
▁familiar	-5315
▁amb	-5316
rep	-5317
igan	-5318
▁teeth	-5319
▁36	-5320
▁describes	-5321
rd	-5322
rants	-5323
▁depending	-5324
ded	-5325
▁Columbia	-5326
▁era	-5327
ION	-5328
pir	-5329
which	-5330
▁governments	-5331
▁occasion	-5332
▁specifically	-5333
▁Secret	-5334
▁Northern	-5335
▁authorities	-5336
▁songs	-5337
▁opinion	-5338
▁contained	-5339
ding	-5340
▁Four	-5341
▁topic	-5342
ses	-5343
born	-5344
▁Russia	-5345
▁worldwide	-5346
▁agreed	-5347
roid	-5348
▁san	-5349
onds	-5350
ey	-5351
▁Please	-5352
▁organized	-5353
▁Mer	-5354
▁lik	-5355
-9	-5356
▁marine	-5357
▁decade	-5358
▁principle	-5359
4)	-5360
US	-5361
▁Vis	-5362
celer	-5363
▁Control	-5364
▁focused	-5365
asure	-5366
▁firm	-5367
isters	-5368
▁decline	-5369
▁processing	-5370
rey	-5371
▁pip	-5372
▁depart	-5373
iform	-5374
27	-5375
▁dynam	-5376
lets	-5377
▁Johnson	-5378
urb	-5379
▁wonder	-5380
▁repeated	-5381
aria	-5382
▁paint	-5383
▁database	-5384
▁instruction	-5385
▁fluid	-5386
▁hearing	-5387
▁plat	-5388
▁Valley	-5389
ita	-5390
▁claimed	-5391
▁thousand	-5392
icks	-5393
orter	-5394
▁fit	-5395
▁Care	-5396
othing	-5397
▁promin	-5398
▁brown	-5399
▁possess	-5400
▁millions	-5401
place	-5402
▁expressed	-5403
▁girls	-5404
▁leads	-5405
▁fundamental	-5406
▁Force	-5407
▁advice	-5408
bour	-5409
▁tun	-5410
▁option	-5411
▁profession	-5412
▁constitution	-5413
▁unlike	-5414
apes	-5415
▁sector	-5416
▁sequence	-5417
▁ordered	-5418
▁explains	-5419
▁haz	-5420
▁Viet	-5421
▁tested	-5422
▁Att	-5423
▁compl	-5424
▁controvers	-5425
bur	-5426
alse	-5427
▁index	-5428
▁derived	-5429
▁external	-5430
▁Nations	-5431
▁discussed	-5432
eria	-5433
▁twice	-5434
▁happened	-5435
▁McC	-5436
▁wid	-5437
▁Main	-5438
atever	-5439
rons	-5440
▁Italy	-5441
▁sud	-5442
ML	-5443
▁Cy	-5444
▁visible	-5445
▁commit	-5446
stood	-5447
▁commission	-5448
icon	-5449
quar	-5450
▁Scot	-5451
Americ	-5452
”.	-5453
▁subs	-5454
resents	-5455
▁division	-5456
▁Cap	-5457
▁Paris	-5458
▁facts	-5459
▁signed	-5460
▁writer	-5461
spec	-5462
▁poet	-5463
▁Power	-5464
▁normally	-5465
▁resulted	-5466
▁goods	-5467
▁3,	-5468
▁Ma	-5469
▁Det	-5470
▁pure	-5471
29	-5472
anged	-5473
▁Battle	-5474
▁rein	-5475
▁edition	-5476
▁remark	-5477
▁represented	-5478
▁Board	-5479
▁grade	-5480
zen	-5481
▁valu	-5482
umin	-5483
▁latest	-5484
▁elected	-5485
DF	-5486
▁circumst	-5487
agon	-5488
▁Super	-5489
▁Eastern	-5490
andon	-5491
▁dogs	-5492
▁Cancer	-5493
normal	-5494
rem	-5495
abil	-5496
▁component	-5497
▁pregnancy	-5498
▁assistance	-5499
▁salt	-5500
▁budget	-5501
▁nit	-5502
▁util	-5503
▁unless	-5504
▁Mel	-5505
▁Sol	-5506
▁pig	-5507
▁sick	-5508
▁75	-5509
▁colleagues	-5510
▁notice	-5511
▁Though	-5512
▁massive	-5513
▁Saf	-5514
▁vegetables	-5515
▁declared	-5516
▁properly	-5517
ada	-5518
▁scholars	-5519
▁Lu	-5520
uses	-5521
▁helping	-5522
▁cogn	-5523
▁plastic	-5524
anc	-5525
know	-5526
21	-5527
mun	-5528
ishop	-5529
▁ages	-5530
ilding	-5531
▁medications	-5532
▁agency	-5533
▁League	-5534
▁alg	-5535
▁traffic	-5536
▁mixed	-5537
oston	-5538
▁Color	-5539
▁formal	-5540
▁Form	-5541
ureau	-5542
inction	-5543
▁feeling	-5544
▁Navy	-5545
▁agreement	-5546
ih	-5547
uous	-5548
▁Global	-5549
▁Tom	-5550
▁Time	-5551
▁tells	-5552
CO	-5553
inity	-5554
▁bridge	-5555
▁IN	-5556
▁represents	-5557
▁relevant	-5558
racy	-5559
▁Star	-5560
roc	-5561
▁Three	-5562
▁myth	-5563
▁experiments	-5564
▁liver	-5565
▁treatments	-5566
oln	-5567
▁Who	-5568
▁grown	-5569
▁Jeff	-5570
▁Empire	-5571
▁Victor	-5572
▁Addition	-5573
fl	-5574
▁capable	-5575
▁Big	-5576
▁ther	-5577
▁couple	-5578
▁raise	-5579
elled	-5580
▁od	-5581
▁depos	-5582
▁vehicle	-5583
▁pictures	-5584
▁unable	-5585
▁spiritual	-5586
awn	-5587
▁faster	-5588
▁intellect	-5589
▁crisis	-5590
abb	-5591
▁Management	-5592
▁Data	-5593
▁sudden	-5594
▁refers	-5595
▁possibility	-5596
mas	-5597
▁33	-5598
▁seeds	-5599
throp	-5600
▁1998	-5601
pping	-5602
▁hyper	-5603
▁fighting	-5604
▁tons	-5605
▁impossible	-5606
reland	-5607
▁Spain	-5608
ictionary	-5609
▁apart	-5610
ansas	-5611
▁Revolution	-5612
othe	-5613
▁Squ	-5614
▁bomb	-5615
▁laboratory	-5616
stone	-5617
▁description	-5618
with	-5619
▁Cat	-5620
▁thir	-5621
▁captured	-5622
vin	-5623
▁launched	-5624
▁ax	-5625
▁harvest	-5626
▁officers	-5627
▁unus	-5628
▁vote	-5629
aturally	-5630
▁indeed	-5631
▁Several	-5632
▁appointed	-5633
EM	-5634
ta	-5635
eer	-5636
prise	-5637
▁producing	-5638
▁territory	-5639
▁introduction	-5640
▁monitoring	-5641
500	-5642
va	-5643
gov	-5644
kes	-5645
eline	-5646
▁parties	-5647
▁aw	-5648
▁Study	-5649
do	-5650
▁Dou	-5651
▁Leg	-5652
▁exchange	-5653
▁Whe	-5654
▁sounds	-5655
▁grav	-5656
-7	-5657
▁Ireland	-5658
▁photograph	-5659
gent	-5660
riculum	-5661
▁Ext	-5662
▁contribute	-5663
▁paralle	-5664
▁acts	-5665
▁shel	-5666
utch	-5667
▁Sing	-5668
▁TV	-5669
▁restrict	-5670
ua	-5671
▁infected	-5672
ads	-5673
▁Free	-5674
▁1997	-5675
ective	-5676
▁vessels	-5677
osh	-5678
▁Ohio	-5679
▁imper	-5680
▁Ast	-5681
▁potentially	-5682
▁corpor	-5683
▁conscious	-5684
▁vulner	-5685
obe	-5686
▁Clin	-5687
▁Following	-5688
▁Figure	-5689
▁prevention	-5690
▁sky	-5691
▁broken	-5692
▁cm	-5693
▁hem	-5694
▁spend	-5695
▁comfort	-5696
rine	-5697
▁fly	-5698
tra	-5699
▁accurate	-5700
iral	-5701
▁Cult	-5702
▁lose	-5703
iac	-5704
▁vehicles	-5705
elesc	-5706
▁debate	-5707
▁managed	-5708
▁flowers	-5709
.;	-5710
venue	-5711
▁adding	-5712
▁ju	-5713
▁finished	-5714
▁hus	-5715
ceeded	-5716
▁shoot	-5717
▁fossil	-5718
▁achieved	-5719
aks	-5720
▁stret	-5721
incoln	-5722
▁rand	-5723
▁procedures	-5724
▁180	-5725
▁powers	-5726
▁computers	-5727
▁inject	-5728
▁List	-5729
ING	-5730
under	-5731
▁nearby	-5732
▁identity	-5733
▁excellent	-5734
anda	-5735
▁Indians	-5736
▁Italian	-5737
▁edge	-5738
▁directed	-5739
▁consequences	-5740
▁Boston	-5741
enses	-5742
▁flex	-5743
no	-5744
▁composed	-5745
▁secondary	-5746
▁Agricult	-5747
▁Get	-5748
aph	-5749
long	-5750
▁keeping	-5751
▁Forest	-5752
▁museum	-5753
▁abandon	-5754
▁survival	-5755
▁tal	-5756
▁random	-5757
▁movements	-5758
▁7.	-5759
care	-5760
▁border	-5761
▁awareness	-5762
▁Lab	-5763
▁valid	-5764
▁Oxford	-5765
▁agriculture	-5766
▁absolute	-5767
▁proteins	-5768
▁Young	-5769
athy	-5770
▁comments	-5771
▁ideal	-5772
▁USA	-5773
ait	-5774
▁plate	-5775
▁leadership	-5776
▁propos	-5777
ails	-5778
asks	-5779
▁delay	-5780
▁ble	-5781
▁Wall	-5782
▁Orig	-5783
sen	-5784
▁183	-5785
▁Special	-5786
▁greatly	-5787
osm	-5788
▁150	-5789
een	-5790
▁dust	-5791
▁schem	-5792
▁locations	-5793
▁attend	-5794
IL	-5795
▁electronic	-5796
▁adequ	-5797
▁format	-5798
▁depends	-5799
▁permanent	-5800
▁aer	-5801
▁therap	-5802
▁touch	-5803
▁anx	-5804
orrow	-5805
▁Exper	-5806
▁doubt	-5807
▁enemy	-5808
▁precise	-5809
▁positions	-5810
.|	-5811
▁unp	-5812
▁legislation	-5813
▁chosen	-5814
isp	-5815
▁university	-5816
▁minimum	-5817
▁wildlife	-5818
▁supplies	-5819
▁sell	-5820
99	-5821
▁Sil	-5822
▁negot	-5823
▁defic	-5824
▁Family	-5825
▁witness	-5826
▁PM	-5827
▁Sk	-5828
vania	-5829
imental	-5830
▁Sciences	-5831
▁Mu	-5832
anguage	-5833
▁ultimately	-5834
EP	-5835
If	-5836
▁coastal	-5837
▁Conn	-5838
▁Resources	-5839
ca	-5840
▁doctors	-5841
▁Guide	-5842
▁simpl	-5843
▁cart	-5844
zil	-5845
▁beautiful	-5846
▁din	-5847
▁pu	-5848
last	-5849
▁filled	-5850
▁regist	-5851
peror	-5852
▁row	-5853
▁sustainable	-5854
ario	-5855
iana	-5856
ogle	-5857
oster	-5858
ola	-5859
ulin	-5860
▁administr	-5861
▁expensive	-5862
▁Ver	-5863
▁Oper	-5864
▁impacts	-5865
cyclopedia	-5866
▁Cast	-5867
▁Lincoln	-5868
▁competition	-5869
unch	-5870
▁victory	-5871
▁equivalent	-5872
▁door	-5873
▁arrest	-5874
adel	-5875
▁publication	-5876
▁immediate	-5877
▁perspective	-5878
▁grew	-5879
ighter	-5880
▁Coast	-5881
▁lesson	-5882
▁younger	-5883
▁honor	-5884
▁pump	-5885
▁withd	-5886
▁solutions	-5887
▁Bank	-5888
▁Music	-5889
ancing	-5890
▁arrange	-5891
▁Holy	-5892
▁initially	-5893
▁abund	-5894
▁Tim	-5895
▁lov	-5896
▁immun	-5897
fe	-5898
omer	-5899
orses	-5900
▁Irish	-5901
▁catch	-5902
ester	-5903
TS	-5904
▁tiny	-5905
▁volcan	-5906
ifications	-5907
▁PC	-5908
igenous	-5909
lar	-5910
while	-5911
▁estimates	-5912
▁approaches	-5913
▁slowly	-5914
heric	-5915
▁editor	-5916
▁Prop	-5917
▁entry	-5918
▁Sir	-5919
▁valuable	-5920
pread	-5921
▁pair	-5922
▁generated	-5923
▁Rh	-5924
ceived	-5925
▁Agency	-5926
orough	-5927
?"	-5928
▁bear	-5929
▁department	-5930
▁diox	-5931
▁hero	-5932
▁organisms	-5933
▁institution	-5934
inson	-5935
▁cars	-5936
▁abuse	-5937
▁topics	-5938
▁constructed	-5939
▁AS	-5940
▁window	-5941
ache	-5942
ampions	-5943
▁wire	-5944
▁vital	-5945
▁ends	-5946
▁bones	-5947
ifies	-5948
▁successfully	-5949
▁wel	-5950
▁phone	-5951
▁platform	-5952
▁Disease	-5953
86	-5954
▁deliver	-5955
aud	-5956
luding	-5957
▁ethnic	-5958
syl	-5959
▁32	-5960
▁voc	-5961
▁attached	-5962
▁phr	-5963
▁justice	-5964
▁planned	-5965
▁recognize	-5966
▁download	-5967
onia	-5968
▁weapons	-5969
isted	-5970
▁1950	-5971
idespread	-5972
▁||	-5973
osion	-5974
▁galax	-5975
▁Director	-5976
▁blog	-5977
▁drawn	-5978
▁Fre	-5979
igation	-5980
eenth	-5981
▁diversity	-5982
▁understood	-5983
▁accounts	-5984
▁approved	-5985
▁philosophy	-5986
▁motiv	-5987
hist	-5988
idden	-5989
▁survive	-5990
▁math	-5991
▁Edward	-5992
▁obtain	-5993
tic	-5994
rors	-5995
▁somewhat	-5996
▁Writ	-5997
umes	-5998
▁join	-5999
mary	-6000
▁magnetic	-6001
▁Prince	-6002
BS	-6003
aska	-6004
▁acceler	-6005
▁Know	-6006
▁rid	-6007
▁molecules	-6008
▁manage	-6009
-20	-6010
lymp	-6011
▁recip	-6012
gu	-6013
▁alle	-6014
▁Later	-6015
▁emotional	-6016
oral	-6017
organ	-6018
▁Tre	-6019
▁Native	-6020
▁stages	-6021
ora	-6022
▁District	-6023
▁Click	-6024
3)	-6025
▁34	-6026
▁waves	-6027
▁gather	-6028
▁Den	-6029
▁af	-6030
▁Rom	-6031
ogue	-6032
▁error	-6033
▁infant	-6034
▁proved	-6035
▁conventional	-6036
agers	-6037
▁Make	-6038
itudes	-6039
▁substance	-6040
▁suffering	-6041
▁supposed	-6042
opyright	-6043
▁shut	-6044
▁decrease	-6045
▁suffered	-6046
▁difficulty	-6047
esity	-6048
rastructure	-6049
▁Sat	-6050
acu	-6051
ourney	-6052
▁push	-6053
inations	-6054
▁comprehensive	-6055
▁gender	-6056
▁OF	-6057
▁nom	-6058
▁Sup	-6059
▁opposite	-6060
ocracy	-6061
IA	-6062
▁concentration	-6063
ailed	-6064
▁stored	-6065
].	-6066
▁Los	-6067
asp	-6068
▁Michigan	-6069
isco	-6070
ounded	-6071
aded	-6072
▁yield	-6073
▁situations	-6074
ye	-6075
ella	-6076
▁Sar	-6077
▁gone	-6078
▁circumstances	-6079
anes	-6080
▁historic	-6081
ading	-6082
▁earthqu	-6083
▁plays	-6084
▁audience	-6085
5)	-6086
yal	-6087
▁observations	-6088
▁Access	-6089
▁Researchers	-6090
▁investment	-6091
▁centre	-6092
faces	-6093
4).	-6094
▁none	-6095
▁kilomet	-6096
▁resolution	-6097
▁dream	-6098
▁neither	-6099
▁moist	-6100
▁Play	-6101
▁camera	-6102
ags	-6103
▁worse	-6104
icide	-6105
roat	-6106
fish	-6107
apping	-6108
▁Pennsyl	-6109
press	-6110
▁expansion	-6111
▁rub	-6112
▁naturally	-6113
OU	-6114
acing	-6115
ints	-6116
▁Kar	-6117
▁Naz	-6118
▁prohib	-6119
▁secure	-6120
▁Georgia	-6121
▁Learning	-6122
▁4,	-6123
▁allerg	-6124
▁damaged	-6125
▁islands	-6126
eters	-6127
▁employed	-6128
ograp	-6129
▁childhood	-6130
▁Administration	-6131
▁score	-6132
▁teams	-6133
▁medium	-6134
▁assigned	-6135
▁maps	-6136
▁Olymp	-6137
▁trials	-6138
▁exists	-6139
▁Bab	-6140
▁sought	-6141
▁apprec	-6142
▁produces	-6143
▁sight	-6144
▁winds	-6145
▁Men	-6146
▁accident	-6147
▁zone	-6148
▁supplement	-6149
▁param	-6150
▁quarter	-6151
▁Fil	-6152
▁fewer	-6153
▁composition	-6154
▁musical	-6155
▁Cambridge	-6156
▁Services	-6157
▁ing	-6158
▁capture	-6159
usal	-6160
▁indicates	-6161
▁seeing	-6162
▁AC	-6163
▁fib	-6164
▁clust	-6165
▁false	-6166
▁Minister	-6167
▁speaking	-6168
▁Gree	-6169
▁limits	-6170
onn	-6171
▁widespread	-6172
▁lin	-6173
▁fill	-6174
▁assign	-6175
▁subm	-6176
▁readers	-6177
rat	-6178
▁Wik	-6179
eck	-6180
▁sports	-6181
▁pretty	-6182
▁dioxide	-6183
▁remote	-6184
ooth	-6185
stract	-6186
▁Climate	-6187
▁boy	-6188
▁affects	-6189
ima	-6190
▁Jo	-6191
▁Chem	-6192
▁respectively	-6193
ashion	-6194
▁Finally	-6195
tenance	-6196
▁mechanism	-6197
▁Year	-6198
▁dedicated	-6199
▁transition	-6200
hma	-6201
▁instruments	-6202
▁roots	-6203
▁Brazil	-6204
▁physics	-6205
ackson	-6206
▁ahead	-6207
▁transmission	-6208
▁Pennsylvania	-6209
example	-6210
▁inflamm	-6211
▁Fact	-6212
▁Cre	-6213
▁400	-6214
▁Jac	-6215
ette	-6216
▁talking	-6217
36	-6218
xual	-6219
▁driving	-6220
▁maintained	-6221
▁toler	-6222
▁conference	-6223
▁Kn	-6224
▁ring	-6225
▁uns	-6226
inate	-6227
▁Micro	-6228
pet	-6229
icians	-6230
▁Gulf	-6231
▁chrom	-6232
hew	-6233
such	-6234
▁sole	-6235
88	-6236
vard	-6237
▁1995	-6238
▁regularly	-6239
oir	-6240
icate	-6241
▁horiz	-6242
▁independence	-6243
▁Ol	-6244
rans	-6245
▁implementation	-6246
▁spok	-6247
itter	-6248
▁opposed	-6249
▁ru	-6250
▁Zeal	-6251
▁standing	-6252
▁turns	-6253
100	-6254
▁Jul	-6255
▁guidelines	-6256
▁Have	-6257
▁aren	-6258
ady	-6259
▁(20	-6260
▁bio	-6261
inder	-6262
▁muscles	-6263
ibilities	-6264
▁1996	-6265
▁males	-6266
olve	-6267
▁fever	-6268
▁undert	-6269
▁subsequent	-6270
▁artist	-6271
▁attempts	-6272
▁string	-6273
alysis	-6274
▁injuries	-6275
free	-6276
ulty	-6277
opes	-6278
▁fruits	-6279
▁extract	-6280
ymph	-6281
▁forth	-6282
▁landscape	-6283
7)	-6284
illa	-6285
▁Ven	-6286
abled	-6287
▁Ec	-6288
hered	-6289
▁principal	-6290
▁prompt	-6291
▁sections	-6292
▁fixed	-6293
▁struggle	-6294
▁oral	-6295
▁stands	-6296
▁concluded	-6297
IG	-6298
There	-6299
▁stick	-6300
uing	-6301
▁Meth	-6302
▁dollars	-6303
▁minute	-6304
ediatric	-6305
▁Ref	-6306
antly	-6307
▁lies	-6308
▁eld	-6309
▁sensitive	-6310
▁magazine	-6311
▁consistent	-6312
▁necessarily	-6313
hand	-6314
▁committee	-6315
▁artists	-6316
▁Er	-6317
▁Cross	-6318
▁rivers	-6319
▁destruction	-6320
ivery	-6321
▁steel	-6322
▁acknow	-6323
▁Chapter	-6324
▁contemporary	-6325
uels	-6326
▁diverse	-6327
ested	-6328
▁desire	-6329
▁politics	-6330
▁Zealand	-6331
▁indicated	-6332
▁silver	-6333
▁receiving	-6334
▁recy	-6335
▁Jackson	-6336
▁roof	-6337
called	-6338
▁signals	-6339
▁antibiot	-6340
▁combat	-6341
wing	-6342
▁cloud	-6343
▁satellite	-6344
▁cong	-6345
▁funds	-6346
irds	-6347
uset	-6348
▁Wal	-6349
▁epid	-6350
▁Liber	-6351
2).	-6352
asters	-6353
alls	-6354
asive	-6355
ployment	-6356
edu	-6357
▁Age	-6358
▁cited	-6359
▁escape	-6360
▁association	-6361
▁density	-6362
▁Nov	-6363
eers	-6364
▁recovery	-6365
▁intelligence	-6366
▁Hur	-6367
▁seemed	-6368
▁electron	-6369
▁Dig	-6370
▁metab	-6371
▁colors	-6372
phone	-6373
▁tall	-6374
▁Design	-6375
cribed	-6376
▁greenhouse	-6377
osph	-6378
▁defense	-6379
▁1930	-6380
▁server	-6381
▁blow	-6382
7).	-6383
▁dip	-6384
▁ske	-6385
▁newly	-6386
▁Current	-6387
▁column	-6388
▁Sand	-6389
▁acres	-6390
▁Heb	-6391
▁percentage	-6392
▁contamin	-6393
▁Sund	-6394
▁guns	-6395
▁veter	-6396
flow	-6397
ushed	-6398
▁street	-6399
▁Capt	-6400
▁Swed	-6401
▁cultiv	-6402
▁helpful	-6403
▁Eff	-6404
▁Creek	-6405
olester	-6406
▁cycl	-6407
▁transportation	-6408
usetts	-6409
▁Never	-6410
▁rising	-6411
95	-6412
▁obst	-6413
▁stre	-6414
▁husband	-6415
▁prepare	-6416
achusetts	-6417
aser	-6418
▁lie	-6419
HO	-6420
▁Conservation	-6421
▁gained	-6422
▁37	-6423
▁Hy	-6424
exp	-6425
▁Lin	-6426
▁Fund	-6427
▁scan	-6428
eper	-6429
▁courses	-6430
▁passing	-6431
▁purchase	-6432
▁Copyright	-6433
”,	-6434
rary	-6435
enant	-6436
▁prominent	-6437
▁lect	-6438
look	-6439
▁Matt	-6440
▁wish	-6441
▁considerable	-6442
▁Town	-6443
▁mild	-6444
omach	-6445
▁refuge	-6446
▁housing	-6447
▁Eth	-6448
anging	-6449
▁studying	-6450
▁Gar	-6451
▁invent	-6452
▁involving	-6453
:||	-6454
▁laid	-6455
mat	-6456
▁mand	-6457
▁suffer	-6458
▁stations	-6459
▁variable	-6460
▁wants	-6461
▁foundation	-6462
▁Add	-6463
▁Little	-6464
▁Bul	-6465
▁enhance	-6466
▁hydrogen	-6467
orous	-6468
▁Author	-6469
bing	-6470
▁confirmed	-6471
▁holding	-6472
▁tube	-6473
▁featured	-6474
▁influenced	-6475
weight	-6476
▁routine	-6477
▁copies	-6478
▁generate	-6479
gans	-6480
level	-6481
Ar	-6482
▁passage	-6483
-10	-6484
arant	-6485
▁flo	-6486
▁crow	-6487
▁prove	-6488
▁Massachusetts	-6489
angered	-6490
▁Laboratory	-6491
adelph	-6492
He	-6493
▁65	-6494
▁regulations	-6495
▁Gr	-6496
▁leaf	-6497
▁Est	-6498
▁architecture	-6499
ificial	-6500
olesterol	-6501
eless	-6502
▁mode	-6503
▁supporting	-6504
ercury	-6505
▁Supreme	-6506
▁committed	-6507
▁Page	-6508
▁accum	-6509
▁participate	-6510
▁knows	-6511
▁employment	-6512
▁thy	-6513
▁boys	-6514
▁comparison	-6515
▁ath	-6516
erted	-6517
▁chain	-6518
▁inner	-6519
CS	-6520
ctive	-6521
▁exped	-6522
▁feeding	-6523
RA	-6524
▁Far	-6525
▁surve	-6526
▁Similar	-6527
▁intellectual	-6528
▁sales	-6529
▁strongly	-6530
48	-6531
▁meters	-6532
▁explanation	-6533
▁Adv	-6534
▁smoke	-6535
▁senior	-6536
▁infrastructure	-6537
▁Corn	-6538
▁closer	-6539
▁parallel	-6540
▁facilit	-6541
then	-6542
▁NY	-6543
▁Pot	-6544
▁willing	-6545
▁finds	-6546
▁starts	-6547
but	-6548
▁nurs	-6549
▁2012.	-6550
▁Survey	-6551
▁Scientists	-6552
▁Kent	-6553
▁Muslim	-6554
▁Best	-6555
▁sacr	-6556
▁cup	-6557
▁IP	-6558
▁females	-6559
▁curriculum	-6560
▁Crit	-6561
▁debt	-6562
ucky	-6563
▁pull	-6564
▁pounds	-6565
▁Queen	-6566
▁biology	-6567
▁spending	-6568
▁horses	-6569
indu	-6570
comes	-6571
▁towns	-6572
▁poison	-6573
▁medication	-6574
▁Lee	-6575
▁mobile	-6576
▁Fred	-6577
avery	-6578
erior	-6579
▁writers	-6580
▁Iran	-6581
▁inher	-6582
▁archae	-6583
▁centers	-6584
▁serving	-6585
▁plot	-6586
▁Heart	-6587
▁Google	-6588
38	-6589
▁outbre	-6590
▁Look	-6591
lishing	-6592
▁switch	-6593
▁calcium	-6594
What	-6595
▁stroke	-6596
aked	-6597
adelphia	-6598
zed	-6599
▁MS	-6600
amber	-6601
▁abnormal	-6602
iah	-6603
▁Confed	-6604
ols	-6605
▁10.	-6606
▁Indust	-6607
▁Network	-6608
▁recognition	-6609
eor	-6610
▁Lo	-6611
▁roughly	-6612
3).	-6613
▁ratio	-6614
▁insects	-6615
▁seconds	-6616
▁Stan	-6617
ivered	-6618
▁estimate	-6619
▁relation	-6620
▁employees	-6621
▁fertil	-6622
▁painting	-6623
▁holds	-6624
▁sharing	-6625
▁installed	-6626
▁modified	-6627
▁Sometimes	-6628
▁cognitive	-6629
76	-6630
▁officer	-6631
▁Ly	-6632
▁carefully	-6633
▁explo	-6634
▁rocks	-6635
▁Senate	-6636
▁facility	-6637
▁Bus	-6638
▁Hor	-6639
▁sod	-6640
▁crime	-6641
▁Mur	-6642
▁rarely	-6643
▁demonstrated	-6644
▁bind	-6645
▁fishing	-6646
▁diagnosed	-6647
▁neck	-6648
Al	-6649
▁legs	-6650
▁guard	-6651
▁Rail	-6652
▁Security	-6653
▁38	-6654
char	-6655
▁48	-6656
▁ille	-6657
▁oblig	-6658
▁truly	-6659
▁defend	-6660
▁1/	-6661
▁calling	-6662
▁Non	-6663
riers	-6664
▁Mean	-6665
▁teen	-6666
▁Islands	-6667
.'	-6668
LE	-6669
▁Francisco	-6670
▁blind	-6671
▁Secretary	-6672
▁opposition	-6673
ipping	-6674
▁granted	-6675
▁smoking	-6676
▁regarded	-6677
▁whatever	-6678
ibl	-6679
▁Tri	-6680
▁mit	-6681
▁Hospital	-6682
▁?	-6683
▁indu	-6684
urches	-6685
▁answers	-6686
▁carrying	-6687
▁Ut	-6688
▁Low	-6689
American	-6690
1).	-6691
ano	-6692
▁IV	-6693
▁maintenance	-6694
html	-6695
sell	-6696
▁networks	-6697
▁agents	-6698
▁shift	-6699
▁Comput	-6700
▁substantial	-6701
▁Ell	-6702
outs	-6703
▁Ira	-6704
▁recording	-6705
▁arter	-6706
▁argued	-6707
bar	-6708
oured	-6709
▁narr	-6710
▁sweet	-6711
▁earliest	-6712
▁Quest	-6713
▁trip	-6714
46	-6715
that	-6716
▁unusual	-6717
ani	-6718
▁launch	-6719
▁markets	-6720
gi	-6721
▁breeding	-6722
▁cryst	-6723
▁controls	-6724
itar	-6725
▁lake	-6726
▁pregnant	-6727
▁8.	-6728
asty	-6729
esis	-6730
ugh	-6731
abeth	-6732
▁Gall	-6733
inking	-6734
▁sevent	-6735
▁stable	-6736
ums	-6737
▁Colorado	-6738
▁Rout	-6739
▁pool	-6740
ascular	-6741
power	-6742
▁Moon	-6743
▁Major	-6744
▁merely	-6745
▁journey	-6746
▁’	-6747
hop	-6748
▁covers	-6749
▁Po	-6750
▁Pen	-6751
▁Down	-6752
▁accompan	-6753
orted	-6754
▁2011.	-6755
▁minim	-6756
▁incl	-6757
▁tasks	-6758
vironments	-6759
▁soul	-6760
▁strict	-6761
erals	-6762
▁disaster	-6763
▁resident	-6764
ults	-6765
▁Init	-6766
▁operate	-6767
▁nutrients	-6768
▁Light	-6769
theless	-6770
▁Online	-6771
▁preced	-6772
▁fifth	-6773
ether	-6774
xts	-6775
▁Take	-6776
/0	-6777
enger	-6778
▁versions	-6779
▁Community	-6780
▁Asian	-6781
▁decide	-6782
▁hypothes	-6783
▁Conference	-6784
▁Eliz	-6785
▁dism	-6786
▁Windows	-6787
▁Encyclopedia	-6788
▁proportion	-6789
▁Philadelphia	-6790
iary	-6791
▁Keep	-6792
▁owned	-6793
itative	-6794
▁2010.	-6795
▁exclus	-6796
▁Obs	-6797
▁Ari	-6798
▁swim	-6799
▁Palest	-6800
▁biggest	-6801
▁conqu	-6802
▁draft	-6803
▁Parliament	-6804
▁55	-6805
▁branch	-6806
▁rig	-6807
earing	-6808
▁improving	-6809
▁victims	-6810
▁pron	-6811
▁tank	-6812
▁danger	-6813
▁delivered	-6814
orph	-6815
▁hole	-6816
▁trouble	-6817
▁exception	-6818
▁Fair	-6819
▁Scotland	-6820
▁orbit	-6821
▁EPA	-6822
inois	-6823
rimination	-6824
▁slaves	-6825
OC	-6826
elve	-6827
▁Pass	-6828
▁Ott	-6829
▁suitable	-6830
▁manufacturing	-6831
▁inspired	-6832
9)	-6833
▁fasc	-6834
▁Angeles	-6835
▁ingred	-6836
▁Polit	-6837
▁Section	-6838
yles	-6839
irt	-6840
▁(6	-6841
▁aqu	-6842
▁refused	-6843
▁Sign	-6844
▁stomach	-6845
▁Teac	-6846
▁enable	-6847
ala	-6848
▁Jim	-6849
▁Chief	-6850
▁multi	-6851
▁critics	-6852
▁generations	-6853
▁reserved	-6854
▁lists	-6855
▁evaluation	-6856
etime	-6857
DP	-6858
ocation	-6859
IP	-6860
▁1:	-6861
etics	-6862
▁fract	-6863
ricts	-6864
▁measurements	-6865
▁Gre	-6866
▁prev	-6867
▁royal	-6868
▁afford	-6869
▁improvement	-6870
▁outer	-6871
▁consumers	-6872
uts	-6873
▁supports	-6874
▁uncertain	-6875
▁Lew	-6876
▁matters	-6877
▁Cub	-6878
▁alter	-6879
operation	-6880
play	-6881
▁colour	-6882
▁attempted	-6883
▁inhib	-6884
▁bread	-6885
▁engaged	-6886
▁frequent	-6887
▁participation	-6888
cul	-6889
9).	-6890
asy	-6891
▁5,	-6892
▁compris	-6893
▁cas	-6894
▁acquired	-6895
oples	-6896
▁plus	-6897
▁chest	-6898
▁choices	-6899
▁Way	-6900
New	-6901
ocy	-6902
▁tor	-6903
▁theme	-6904
▁manager	-6905
▁physician	-6906
LA	-6907
ishment	-6908
gs	-6909
▁Point	-6910
▁dropped	-6911
▁expanded	-6912
',	-6913
atern	-6914
▁Open	-6915
▁pilot	-6916
▁walking	-6917
▁Obama	-6918
▁giant	-6919
▁visited	-6920
You	-6921
▁seat	-6922
unicip	-6923
▁conclusion	-6924
▁heavily	-6925
▁distributed	-6926
▁Again	-6927
▁orders	-6928
▁delivery	-6929
▁evil	-6930
▁nest	-6931
▁Corps	-6932
▁intervention	-6933
bra	-6934
▁drawing	-6935
▁lessons	-6936
▁caught	-6937
▁circuit	-6938
heimer	-6939
▁plane	-6940
▁Father	-6941
▁mice	-6942
▁papers	-6943
occ	-6944
▁Learn	-6945
▁scientist	-6946
▁viewed	-6947
fit	-6948
▁Source	-6949
▁feelings	-6950
▁investigation	-6951
▁cultures	-6952
▁neu	-6953
▁shif	-6954
▁hun	-6955
▁Christians	-6956
hyth	-6957
▁copyright	-6958
iser	-6959
urt	-6960
▁gradually	-6961
▁Max	-6962
▁theore	-6963
ude	-6964
rics	-6965
▁terror	-6966
▁examine	-6967
▁whereas	-6968
▁orient	-6969
▁id	-6970
▁roads	-6971
plant	-6972
▁Sym	-6973
▁Saint	-6974
cel	-6975
bles	-6976
▁Fire	-6977
▁babies	-6978
▁Wildlife	-6979
44	-6980
▁sched	-6981
▁broadcast	-6982
▁mathematics	-6983
apse	-6984
▁framework	-6985
▁settlement	-6986
SS	-6987
▁council	-6988
▁trained	-6989
▁Change	-6990
▁battery	-6991
▁mac	-6992
icted	-6993
▁(5	-6994
▁beat	-6995
▁ment	-6996
▁burning	-6997
▁Card	-6998
▁categories	-6999
▁Iraq	-7000
▁businesses	-7001
▁happy	-7002
▁fisher	-7003
▁cav	-7004
▁Arctic	-7005
▁cholesterol	-7006
gers	-7007
▁shop	-7008
istent	-7009
As	-7010
car	-7011
▁AM	-7012
▁arts	-7013
▁compounds	-7014
▁Language	-7015
yer	-7016
itals	-7017
▁wasn	-7018
▁Ur	-7019
arsh	-7020
▁Justice	-7021
OL	-7022
▁union	-7023
▁Illinois	-7024
▁noise	-7025
▁Hand	-7026
urning	-7027
▁intake	-7028
▁recommendations	-7029
▁coff	-7030
aming	-7031
▁writes	-7032
▁session	-7033
▁environments	-7034
▁("	-7035
▁Andrew	-7036
▁Modern	-7037
▁guarant	-7038
mes	-7039
▁films	-7040
thur	-7041
▁chap	-7042
▁interaction	-7043
ba	-7044
word	-7045
▁Pak	-7046
▁reader	-7047
▁fashion	-7048
▁partner	-7049
▁regul	-7050
▁obesity	-7051
▁warning	-7052
▁1940	-7053
▁Jack	-7054
ourage	-7055
▁organs	-7056
▁chair	-7057
▁manif	-7058
▁interpre	-7059
▁Darwin	-7060
▁absence	-7061
▁Van	-7062
▁rose	-7063
▁Field	-7064
▁lifest	-7065
herent	-7066
▁creates	-7067
▁missing	-7068
▁contributed	-7069
▁Unf	-7070
▁highlight	-7071
▁Less	-7072
▁superior	-7073
▁layers	-7074
elescope	-7075
▁permission	-7076
▁cattle	-7077
▁kidney	-7078
▁newspaper	-7079
▁Convention	-7080
▁engines	-7081
umps	-7082
▁Daniel	-7083
zer	-7084
▁tumor	-7085
▁reaching	-7086
▁screening	-7087
CR	-7088
▁tips	-7089
▁cutting	-7090
ipedia	-7091
▁zero	-7092
▁relief	-7093
▁charged	-7094
▁adequate	-7095
▁orb	-7096
▁fab	-7097
rin	-7098
▁raw	-7099
▁ov	-7100
agan	-7101
ypes	-7102
An	-7103
▁visitors	-7104
▁boat	-7105
▁encouraged	-7106
eren	-7107
▁Hot	-7108
▁Liter	-7109
▁ongoing	-7110
▁objective	-7111
32	-7112
▁Contin	-7113
▁engage	-7114
▁turning	-7115
▁instructions	-7116
▁dates	-7117
▁intense	-7118
▁inhabit	-7119
▁underlying	-7120
issipp	-7121
▁texts	-7122
▁Alexander	-7123
▁Prevention	-7124
▁paras	-7125
▁designs	-7126
▁Plant	-7127
▁bringing	-7128
▁category	-7129
▁Dutch	-7130
▁moves	-7131
acco	-7132
▁Coll	-7133
▁preval	-7134
▁anxiety	-7135
▁planets	-7136
▁executive	-7137
▁threatened	-7138
izer	-7139
▁mountains	-7140
ami	-7141
otes	-7142
▁responses	-7143
▁integrated	-7144
▁Ok	-7145
▁fer	-7146
▁banks	-7147
▁Williams	-7148
▁concrete	-7149
▁demonstrate	-7150
IM	-7151
bec	-7152
scale	-7153
▁Hawai	-7154
▁Table	-7155
▁girl	-7156
▁dose	-7157
▁recept	-7158
▁biod	-7159
mann	-7160
hesis	-7161
▁owner	-7162
▁Bureau	-7163
▁awarded	-7164
▁apparently	-7165
▁turb	-7166
▁proof	-7167
▁wing	-7168
▁circle	-7169
▁define	-7170
▁conserv	-7171
▁Spring	-7172
abits	-7173
▁advert	-7174
▁printed	-7175
rous	-7176
earch	-7177
▁1920	-7178
emb	-7179
▁ben	-7180
▁diameter	-7181
▁examination	-7182
▁significance	-7183
▁thr	-7184
erent	-7185
▁heads	-7186
▁criteria	-7187
▁duty	-7188
▁Mah	-7189
▁corner	-7190
isk	-7191
▁Wales	-7192
▁judge	-7193
▁Maryland	-7194
")	-7195
▁jump	-7196
▁Harvard	-7197
▁Elizabeth	-7198
olk	-7199
▁nort	-7200
▁Creat	-7201
▁fellow	-7202
▁uniform	-7203
▁personnel	-7204
ods	-7205
bury	-7206
▁fairly	-7207
iat	-7208
▁Books	-7209
▁blocks	-7210
▁mechanisms	-7211
▁Mid	-7212
▁slave	-7213
ilation	-7214
▁Hebrew	-7215
▁buried	-7216
alm	-7217
▁reactions	-7218
▁concerning	-7219
▁universal	-7220
▁presentation	-7221
medi	-7222
▁forg	-7223
37	-7224
▁professionals	-7225
emia	-7226
▁putting	-7227
bu	-7228
writ	-7229
▁memb	-7230
▁conven	-7231
▁Christmas	-7232
▁Enter	-7233
▁machines	-7234
▁AP	-7235
uracy	-7236
▁Die	-7237
▁essentially	-7238
▁van	-7239
adder	-7240
ommod	-7241
▁Head	-7242
▁photo	-7243
▁flying	-7244
▁killing	-7245
▁elsewhere	-7246
opher	-7247
▁thoughts	-7248
ube	-7249
▁Hit	-7250
▁Mississipp	-7251
▁begun	-7252
using	-7253
▁Colon	-7254
▁digest	-7255
roduction	-7256
96	-7257
▁usual	-7258
Ph	-7259
▁Beh	-7260
▁theories	-7261
34	-7262
▁Pract	-7263
▁settled	-7264
▁gro	-7265
▁Club	-7266
▁molecular	-7267
▁intensity	-7268
-18	-7269
outheast	-7270
regon	-7271
▁sentence	-7272
▁Key	-7273
▁adoles	-7274
▁vulnerable	-7275
orith	-7276
Is	-7277
▁Mult	-7278
▁temple	-7279
▁ton	-7280
estival	-7281
▁volt	-7282
▁connections	-7283
usalem	-7284
▁examined	-7285
UC	-7286
▁movie	-7287
▁insurance	-7288
ouri	-7289
top	-7290
▁crim	-7291
▁nerve	-7292
▁programming	-7293
▁enforce	-7294
▁Jones	-7295
▁taxes	-7296
98	-7297
▁agent	-7298
▁Ice	-7299
▁Next	-7300
raining	-7301
▁solve	-7302
▁frame	-7303
▁serves	-7304
▁Protection	-7305
▁furn	-7306
▁fed	-7307
▁lots	-7308
▁entit	-7309
rav	-7310
▁jur	-7311
▁Game	-7312
▁beliefs	-7313
▁evolved	-7314
▁highway	-7315
▁shock	-7316
▁armed	-7317
▁fought	-7318
▁consumer	-7319
CD	-7320
▁fro	-7321
▁Norm	-7322
▁coverage	-7323
▁interpretation	-7324
▁neur	-7325
aired	-7326
▁earn	-7327
▁shore	-7328
▁tract	-7329
▁collaboration	-7330
▁fold	-7331
▁spacecraft	-7332
inf	-7333
▁stead	-7334
▁Call	-7335
▁spin	-7336
▁cards	-7337
▁roles	-7338
▁Offic	-7339
▁asking	-7340
▁stopped	-7341
▁Aff	-7342
▁channel	-7343
▁substances	-7344
▁seeking	-7345
▁Py	-7346
rays	-7347
erman	-7348
▁sister	-7349
▁crucial	-7350
▁viruses	-7351
▁thorough	-7352
▁Nob	-7353
▁enorm	-7354
▁assumed	-7355
ker	-7356
▁mos	-7357
▁handle	-7358
▁scar	-7359
▁Mississippi	-7360
▁subsequently	-7361
▁empt	-7362
irth	-7363
▁drought	-7364
▁respir	-7365
▁designated	-7366
azing	-7367
▁courts	-7368
▁creative	-7369
sts	-7370
▁Ca	-7371
alo	-7372
▁establishment	-7373
oul	-7374
IR	-7375
xture	-7376
▁Sunday	-7377
▁falls	-7378
▁driven	-7379
▁sup	-7380
▁equally	-7381
▁Pur	-7382
▁Pakistan	-7383
▁!	-7384
▁1994	-7385
▁filter	-7386
▁9.	-7387
EF	-7388
▁AND	-7389
▁angle	-7390
▁tooth	-7391
▁py	-7392
▁Oregon	-7393
▁sharp	-7394
▁pestic	-7395
▁holid	-7396
▁lymph	-7397
▁incident	-7398
ostic	-7399
▁listen	-7400
▁repair	-7401
▁ped	-7402
▁tribes	-7403
cons	-7404
▁Dam	-7405
rolled	-7406
▁Jerusalem	-7407
▁ven	-7408
▁Kansas	-7409
▁electro	-7410
▁pit	-7411
ritis	-7412
▁Fed	-7413
idance	-7414
▁panel	-7415
ieval	-7416
65	-7417
▁dispos	-7418
▁mortality	-7419
▁sheet	-7420
▁slavery	-7421
how	-7422
▁offering	-7423
▁pharm	-7424
▁occupied	-7425
▁mechanical	-7426
47	-7427
▁wine	-7428
▁manip	-7429
▁losses	-7430
▁mining	-7431
▁pointed	-7432
▁reviews	-7433
olt	-7434
▁Equ	-7435
▁Hard	-7436
▁statistics	-7437
▁Wilson	-7438
TC	-7439
▁worst	-7440
inating	-7441
▁Jr	-7442
ardens	-7443
▁isolated	-7444
▁Furthermore	-7445
▁careful	-7446
▁Unfortunately	-7447
/20	-7448
▁gap	-7449
▁messages	-7450
uled	-7451
▁Organization	-7452
▁cosm	-7453
▁psychological	-7454
▁breathing	-7455
▁(1)	-7456
▁Vietnam	-7457
▁(198	-7458
▁flows	-7459
otton	-7460
▁Centre	-7461
▁Independ	-7462
▁detected	-7463
▁Albert	-7464
▁neighborhood	-7465
▁disturb	-7466
▁branches	-7467
ultane	-7468
sets	-7469
▁attacked	-7470
era	-7471
▁faced	-7472
▁taste	-7473
▁°	-7474
▁kit	-7475
▁View	-7476
onym	-7477
▁fleet	-7478
mail	-7479
▁stuff	-7480
▁separated	-7481
una	-7482
▁favorite	-7483
▁skill	-7484
▁oldest	-7485
▁accommod	-7486
bi	-7487
▁pref	-7488
▁Ask	-7489
ounter	-7490
▁purs	-7491
▁resc	-7492
▁sit	-7493
▁fulf	-7494
▁protocol	-7495
▁behaviour	-7496
bean	-7497
▁rab	-7498
▁Islamic	-7499
▁preparation	-7500
▁butter	-7501
▁football	-7502
▁presents	-7503
▁Marsh	-7504
▁hurricane	-7505
▁hall	-7506
▁beings	-7507
including	-7508
▁implemented	-7509
▁Nut	-7510
▁adds	-7511
aints	-7512
▁Award	-7513
▁Historical	-7514
uan	-7515
▁behaviors	-7516
uma	-7517
▁Blue	-7518
▁Works	-7519
▁counsel	-7520
▁Sus	-7521
rong	-7522
otype	-7523
ouds	-7524
▁6,	-7525
itely	-7526
charge	-7527
▁broke	-7528
▁asthma	-7529
▁Dev	-7530
▁dance	-7531
▁polar	-7532
istical	-7533
▁attended	-7534
▁dramatic	-7535
rot	-7536
▁chlor	-7537
▁virtual	-7538
▁Governor	-7539
▁plain	-7540
▁Marine	-7541
▁colonial	-7542
cient	-7543
▁tissues	-7544
▁Diff	-7545
▁facing	-7546
▁Dictionary	-7547
▁rice	-7548
ogether	-7549
▁continuous	-7550
▁phenomenon	-7551
▁measurement	-7552
▁Pu	-7553
ographical	-7554
▁worship	-7555
ulpt	-7556
▁Mot	-7557
ensed	-7558
▁sport	-7559
▁intern	-7560
enced	-7561
▁Christianity	-7562
rox	-7563
▁ly	-7564
▁steam	-7565
▁strike	-7566
▁nose	-7567
▁extend	-7568
▁evaluate	-7569
▁EU	-7570
▁invasion	-7571
)|	-7572
▁grain	-7573
▁Perhaps	-7574
▁tight	-7575
ruption	-7576
▁demands	-7577
▁implications	-7578
▁optim	-7579
▁Safety	-7580
▁criminal	-7581
▁functional	-7582
▁SS	-7583
isdom	-7584
31	-7585
'.	-7586
▁racial	-7587
▁renewable	-7588
▁Hung	-7589
▁advent	-7590
▁Korea	-7591
edy	-7592
etary	-7593
haust	-7594
▁myst	-7595
UN	-7596
net	-7597
▁eru	-7598
▁Missouri	-7599
lan	-7600
▁AIDS	-7601
▁Check	-7602
?”	-7603
OM	-7604
ptions	-7605
5).	-7606
eff	-7607
utation	-7608
▁Spirit	-7609
▁difficulties	-7610
▁wait	-7611
▁prosp	-7612
▁assume	-7613
▁hazard	-7614
▁DC	-7615
▁Ty	-7616
▁reign	-7617
mond	-7618
▁Cop	-7619
▁accuracy	-7620
▁outcomes	-7621
amination	-7622
▁Agriculture	-7623
▁occas	-7624
class	-7625
▁inch	-7626
▁province	-7627
▁accompanied	-7628
▁gluc	-7629
▁Policy	-7630
▁les	-7631
▁split	-7632
▁targets	-7633
ao	-7634
▁fiber	-7635
▁compare	-7636
athered	-7637
real	-7638
▁Does	-7639
EE	-7640
angle	-7641
ailability	-7642
iov	-7643
▁conj	-7644
▁districts	-7645
▁sail	-7646
▁intest	-7647
iations	-7648
▁algorith	-7649
▁experimental	-7650
▁seg	-7651
▁insulin	-7652
aven	-7653
▁informed	-7654
▁satisf	-7655
▁chose	-7656
▁(2)	-7657
▁Luc	-7658
▁Portug	-7659
▁adapted	-7660
▁covering	-7661
▁references	-7662
▁dependent	-7663
oto	-7664
essions	-7665
▁acting	-7666
▁hunting	-7667
hus	-7668
vation	-7669
▁continuing	-7670
orters	-7671
▁radical	-7672
▁surfaces	-7673
▁temporary	-7674
▁Type	-7675
▁Week	-7676
▁nerv	-7677
▁marks	-7678
▁grounds	-7679
▁mph	-7680
▁struck	-7681
▁statements	-7682
▁complicated	-7683
▁transferred	-7684
▁config	-7685
▁abandoned	-7686
borne	-7687
▁intent	-7688
▁transp	-7689
▁clothing	-7690
▁defeated	-7691
from	-7692
ighth	-7693
77	-7694
▁1,000	-7695
▁spons	-7696
quarters	-7697
lims	-7698
▁infants	-7699
▁substit	-7700
▁confidence	-7701
▁NO	-7702
eness	-7703
▁Heritage	-7704
▁artificial	-7705
▁Unlike	-7706
▁variation	-7707
▁acute	-7708
HA	-7709
▁Without	-7710
▁emphasis	-7711
▁Assess	-7712
▁Alz	-7713
rowing	-7714
▁domain	-7715
▁microsc	-7716
▁ordinary	-7717
▁provider	-7718
▁interface	-7719
▁characterized	-7720
▁Arm	-7721
riend	-7722
▁Bush	-7723
▁peoples	-7724
▁vel	-7725
▁Media	-7726
▁Person	-7727
5%	-7728
anges	-7729
▁engineers	-7730
▁AL	-7731
▁Within	-7732
▁Building	-7733
▁concentrations	-7734
-12	-7735
▁falling	-7736
▁smooth	-7737
▁(4	-7738
▁Short	-7739
▁photos	-7740
▁believes	-7741
▁array	-7742
▁usage	-7743
▁windows	-7744
▁tom	-7745
▁harmful	-7746
asant	-7747
elfare	-7748
▁brand	-7749
▁lowest	-7750
▁moderate	-7751
▁rainfall	-7752
ali	-7753
▁Stephen	-7754
ulus	-7755
▁flav	-7756
▁acids	-7757
▁gram	-7758
▁decor	-7759
▁brings	-7760
▁evening	-7761
▁Frid	-7762
uscript	-7763
▁removal	-7764
▁literary	-7765
▁stronger	-7766
▁178	-7767
otherapy	-7768
▁boost	-7769
▁interior	-7770
▁wat	-7771
▁Station	-7772
▁Os	-7773
bell	-7774
▁Indeed	-7775
▁mothers	-7776
▁libr	-7777
▁decreased	-7778
▁communicate	-7779
cling	-7780
pes	-7781
▁gases	-7782
box	-7783
▁Imp	-7784
▁athlet	-7785
▁prey	-7786
▁stores	-7787
▁interactions	-7788
8).	-7789
▁aged	-7790
▁crown	-7791
▁bond	-7792
▁Jon	-7793
▁Charl	-7794
owed	-7795
▁Lewis	-7796
western	-7797
▁defeat	-7798
▁maintaining	-7799
▁holes	-7800
▁compens	-7801
▁formula	-7802
▁Ram	-7803
▁Word	-7804
icious	-7805
▁churches	-7806
▁Bern	-7807
▁Dun	-7808
▁mir	-7809
endment	-7810
▁characteristic	-7811
▁Lead	-7812
▁extension	-7813
▁2:	-7814
rint	-7815
▁purchased	-7816
▁industries	-7817
8)	-7818
▁39	-7819
▁Small	-7820
▁Material	-7821
▁medicines	-7822
HD	-7823
▁Article	-7824
aret	-7825
esides	-7826
otal	-7827
▁mine	-7828
▁Bow	-7829
▁cancers	-7830
▁consideration	-7831
▁2009.	-7832
rection	-7833
▁forming	-7834
▁reveal	-7835
▁dress	-7836
▁occurring	-7837
aine	-7838
▁chemistry	-7839
▁converted	-7840
▁accessible	-7841
▁translation	-7842
oom	-7843
▁farming	-7844
ician	-7845
itual	-7846
▁desert	-7847
▁tracks	-7848
▁evolutionary	-7849
▁Minnes	-7850
▁updated	-7851
▁Engineering	-7852
▁Alzheimer	-7853
▁observation	-7854
▁Cr	-7855
▁lifestyle	-7856
oding	-7857
▁photographs	-7858
▁cats	-7859
chen	-7860
▁drain	-7861
▁Fle	-7862
▁autism	-7863
▁Between	-7864
▁Moreover	-7865
▁settings	-7866
▁contribution	-7867
▁lights	-7868
▁remind	-7869
▁landing	-7870
after	-7871
▁Mond	-7872
▁addressed	-7873
▁inflammation	-7874
▁simultane	-7875
▁imaging	-7876
▁operated	-7877
▁46	-7878
▁Fer	-7879
▁Tay	-7880
http	-7881
▁surge	-7882
▁Democratic	-7883
▁Var	-7884
▁copper	-7885
▁nitrogen	-7886
▁reliable	-7887
▁disabilities	-7888
pled	-7889
▁Treatment	-7890
▁ourselves	-7891
thritis	-7892
▁Philipp	-7893
▁Bang	-7894
▁exhibit	-7895
▁arguments	-7896
▁passes	-7897
▁scenes	-7898
inces	-7899
thod	-7900
▁cab	-7901
▁chick	-7902
regation	-7903
da	-7904
hythm	-7905
▁errors	-7906
▁habits	-7907
wan	-7908
▁Emer	-7909
▁sons	-7910
▁Doc	-7911
▁breed	-7912
],	-7913
acts	-7914
▁precip	-7915
▁virtually	-7916
ricted	-7917
▁recover	-7918
▁ye	-7919
▁strengthen	-7920
▁pin	-7921
▁funded	-7922
▁Mexican	-7923
▁governor	-7924
▁discrimination	-7925
def	-7926
ador	-7927
reated	-7928
Wh	-7929
▁bat	-7930
VD	-7931
▁bath	-7932
coming	-7933
▁preventing	-7934
6).	-7935
asm	-7936
▁subt	-7937
▁spoke	-7938
▁tumors	-7939
fts	-7940
▁Ha	-7941
▁2008.	-7942
▁recru	-7943
▁Mountain	-7944
abul	-7945
▁argue	-7946
▁twelve	-7947
▁realize	-7948
▁classical	-7949
▁DO	-7950
atively	-7951
▁tempor	-7952
▁Ba	-7953
▁bless	-7954
section	-7955
▁violent	-7956
▁kingdom	-7957
39	-7958
ati	-7959
worth	-7960
▁Fish	-7961
▁glac	-7962
▁item	-7963
▁pros	-7964
▁Santa	-7965
▁effectiveness	-7966
▁IC	-7967
lock	-7968
▁11,	-7969
▁Third	-7970
▁indigenous	-7971
▁Still	-7972
▁entitled	-7973
▁measuring	-7974
.).	-7975
▁rect	-7976
▁existed	-7977
▁Minnesota	-7978
▁120	-7979
claim	-7980
iability	-7981
▁Area	-7982
▁mile	-7983
oric	-7984
sm	-7985
arents	-7986
▁commitment	-7987
▁officially	-7988
▁AR	-7989
▁aimed	-7990
duction	-7991
▁Hitler	-7992
▁representation	-7993
ito	-7994
▁Arts	-7995
▁dies	-7996
▁communications	-7997
▁posted	-7998
ghan	-7999
▁Davis	-8000
▁battles	-8001
▁traditions	-8002
▁Ariz	-8003
▁Jersey	-8004
gon	-8005
omers	-8006
uther	-8007
▁Gene	-8008
▁brows	-8009
▁pursu	-8010
▁Captain	-8011
▁colonies	-8012
DS	-8013
Un	-8014
▁collections	-8015
▁44	-8016
rite	-8017
▁Bob	-8018
har	-8019
▁spectrum	-8020
▁AT	-8021
▁2014	-8022
gence	-8023
▁thereby	-8024
▁involvement	-8025
▁occasionally	-8026
ropol	-8027
▁ending	-8028
▁Circ	-8029
▁Antar	-8030
dule	-8031
▁relie	-8032
▁Lim	-8033
▁exhaust	-8034
▁mathematical	-8035
elly	-8036
hent	-8037
▁grid	-8038
▁10,	-8039
▁pup	-8040
▁scored	-8041
awa	-8042
▁Muslims	-8043
▁recon	-8044
▁Drug	-8045
▁buff	-8046
raham	-8047
▁urine	-8048
▁gravity	-8049
▁variations	-8050
▁rely	-8051
▁accord	-8052
▁8,	-8053
adron	-8054
▁analog	-8055
▁vegetation	-8056
▁Cho	-8057
▁chromos	-8058
▁Carl	-8059
▁Order	-8060
iger	-8061
▁wars	-8062
▁2010,	-8063
▁Start	-8064
▁constantly	-8065
▁7,	-8066
▁Indones	-8067
▁Him	-8068
▁Wed	-8069
▁meal	-8070
▁alive	-8071
hea	-8072
▁Rog	-8073
making	-8074
▁correl	-8075
▁dealing	-8076
acent	-8077
▁sculpt	-8078
▁Assembly	-8079
▁assemb	-8080
▁representing	-8081
foot	-8082
▁Republican	-8083
idal	-8084
issance	-8085
▁Tenn	-8086
▁quiet	-8087
▁stood	-8088
ranch	-8089
itivity	-8090
▁earned	-8091
df	-8092
unicipal	-8093
▁tea	-8094
▁hosp	-8095
onents	-8096
▁neutral	-8097
opic	-8098
idity	-8099
▁descript	-8100
▁graduate	-8101
athan	-8102
▁Pope	-8103
hedule	-8104
arks	-8105
▁Century	-8106
▁cooling	-8107
▁desired	-8108
▁nervous	-8109
▁preferred	-8110
▁streets	-8111
▁preserve	-8112
▁Economic	-8113
▁enormous	-8114
▁guidance	-8115
▁vertical	-8116
▁Ho	-8117
▁doi	-8118
▁infect	-8119
▁streams	-8120
▁feedback	-8121
ranean	-8122
▁returns	-8123
oli	-8124
soft	-8125
▁600	-8126
▁resid	-8127
▁entering	-8128
▁earthquake	-8129
▁mg	-8130
▁Standard	-8131
▁influenza	-8132
▁1992	-8133
endar	-8134
▁Alaska	-8135
▁specified	-8136
apor	-8137
▁tick	-8138
▁2007.	-8139
▁wheel	-8140
▁beauty	-8141
▁murder	-8142
erly	-8143
anger	-8144
▁winning	-8145
▁classified	-8146
zo	-8147
▁Solar	-8148
▁beneficial	-8149
IF	-8150
▁Jacob	-8151
▁illegal	-8152
▁contents	-8153
▁rational	-8154
▁detection	-8155
▁faculty	-8156
▁reporting	-8157
ugg	-8158
▁weaken	-8159
TH	-8160
▁survived	-8161
▁households	-8162
▁remarkable	-8163
▁considering	-8164
amps	-8165
just	-8166
pling	-8167
rooms	-8168
leton	-8169
ontal	-8170
▁Guard	-8171
▁moisture	-8172
▁contributions	-8173
arn	-8174
▁Ess	-8175
▁calories	-8176
▁commander	-8177
icated	-8178
▁minister	-8179
amine	-8180
▁reef	-8181
▁trends	-8182
▁outcome	-8183
▁internet	-8184
▁reward	-8185
▁Rus	-8186
▁clar	-8187
▁uncle	-8188
▁hardware	-8189
atal	-8190
▁Having	-8191
▁minority	-8192
▁fur	-8193
▁ruled	-8194
▁annually	-8195
▁researcher	-8196
neum	-8197
▁saved	-8198
▁phrase	-8199
▁coffee	-8200
▁forget	-8201
▁phosph	-8202
▁candidate	-8203
▁TO	-8204
ifer	-8205
▁merch	-8206
▁voltage	-8207
▁ash	-8208
▁Balt	-8209
▁Grant	-8210
▁Poland	-8211
▁Volume	-8212
▁proven	-8213
osaur	-8214
▁Germans	-8215
▁Boy	-8216
▁Hay	-8217
▁alph	-8218
▁focuses	-8219
▁heating	-8220
▁withdraw	-8221
▁improvements	-8222
new	-8223
▁propag	-8224
ounced	-8225
▁fiction	-8226
▁producers	-8227
▁Ray	-8228
▁uncom	-8229
century	-8230
▁ritual	-8231
▁eliminate	-8232
aws	-8233
zone	-8234
ivest	-8235
ila	-8236
▁Friday	-8237
▁reviewed	-8238
▁achievement	-8239
ologic	-8240
▁displayed	-8241
▁49	-8242
▁clock	-8243
▁observe	-8244
unc	-8245
▁Bell	-8246
▁Near	-8247
▁sulf	-8248
▁hat	-8249
produ	-8250
▁Origin	-8251
▁elections	-8252
%)	-8253
▁proposal	-8254
oked	-8255
▁1991	-8256
▁atoms	-8257
▁overw	-8258
ENT	-8259
▁42	-8260
▁geomet	-8261
▁Systems	-8262
▁arrival	-8263
▁flour	-8264
▁thanks	-8265
▁Son	-8266
archy	-8267
▁dimens	-8268
▁Arizona	-8269
55	-8270
▁portray	-8271
▁audio	-8272
▁partly	-8273
▁expedition	-8274
▁thread	-8275
▁fet	-8276
▁flash	-8277
▁cul	-8278
▁farms	-8279
▁driver	-8280
▁heritage	-8281
▁vs	-8282
iano	-8283
▁inqu	-8284
▁pion	-8285
ampionship	-8286
▁64	-8287
iture	-8288
ourse	-8289
▁herself	-8290
▁performing	-8291
▁Love	-8292
▁assembly	-8293
▁Nap	-8294
▁Greg	-8295
▁losing	-8296
▁reverse	-8297
▁replacement	-8298
oca	-8299
itzer	-8300
▁lungs	-8301
▁democracy	-8302
▁BBC	-8303
antine	-8304
▁mineral	-8305
▁explicit	-8306
For	-8307
alion	-8308
lected	-8309
▁structural	-8310
▁Meanwhile	-8311
▁varieties	-8312
▁250	-8313
▁Polish	-8314
▁Temple	-8315
▁provision	-8316
Gen	-8317
▁hence	-8318
▁Corpor	-8319
▁exploration	-8320
EA	-8321
mers	-8322
▁Jefferson	-8323
▁preserved	-8324
▁rh	-8325
▁irrig	-8326
▁variables	-8327
▁tob	-8328
▁recre	-8329
▁identification	-8330
iop	-8331
▁hormone	-8332
▁consciousness	-8333
▁1993	-8334
▁subsid	-8335
▁spaces	-8336
▁emerged	-8337
▁evident	-8338
oys	-8339
▁800	-8340
ecess	-8341
▁representative	-8342
▁Stone	-8343
▁victim	-8344
▁$1	-8345
oded	-8346
▁imagine	-8347
▁returning	-8348
aware	-8349
▁biom	-8350
▁meetings	-8351
isd	-8352
ivestock	-8353
▁descend	-8354
▁treating	-8355
▁thirty	-8356
▁associate	-8357
▁poetry	-8358
▁dim	-8359
▁grows	-8360
▁flower	-8361
mm	-8362
lete	-8363
itory	-8364
▁analys	-8365
▁threats	-8366
she	-8367
orig	-8368
▁stones	-8369
▁creatures	-8370
▁Nic	-8371
aka	-8372
owa	-8373
▁smart	-8374
▁shaped	-8375
▁15,	-8376
▁Ministry	-8377
6)	-8378
▁promise	-8379
▁CA	-8380
/200	-8381
▁endangered	-8382
▁Lat	-8383
▁poem	-8384
▁hyb	-8385
eller	-8386
▁sale	-8387
lav	-8388
sis	-8389
▁societies	-8390
▁initiative	-8391
▁circulation	-8392
▁47	-8393
▁Blood	-8394
▁divine	-8395
▁everyday	-8396
urrent	-8397
▁Face	-8398
itarian	-8399
▁programme	-8400
▁breath	-8401
▁distant	-8402
nedy	-8403
▁Sav	-8404
▁carb	-8405
▁sitting	-8406
mble	-8407
▁Relig	-8408
▁reserv	-8409
UR	-8410
▁dys	-8411
▁fix	-8412
ptic	-8413
▁Hum	-8414
ochem	-8415
▁abstract	-8416
▁historian	-8417
▁dense	-8418
▁HT	-8419
▁Occ	-8420
▁Peace	-8421
▁tables	-8422
▁Much	-8423
icular	-8424
▁relax	-8425
▁Testament	-8426
▁inhabitants	-8427
▁Additionally	-8428
▁Lie	-8429
▁prime	-8430
▁fabric	-8431
▁quantity	-8432
rob	-8433
▁von	-8434
▁Marc	-8435
▁fatal	-8436
▁Comple	-8437
▁anywhere	-8438
enh	-8439
ifice	-8440
▁anticip	-8441
thodox	-8442
ulates	-8443
▁Bridge	-8444
▁Search	-8445
▁scores	-8446
▁migration	-8447
▁ty	-8448
airy	-8449
▁fuels	-8450
▁interf	-8451
eut	-8452
▁Due	-8453
ocated	-8454
▁resemb	-8455
▁classic	-8456
▁assistant	-8457
▁logic	-8458
iration	-8459
▁tobacco	-8460
▁railroad	-8461
:10.	-8462
▁Cost	-8463
istant	-8464
▁colony	-8465
▁assault	-8466
▁episodes	-8467
▁rejected	-8468
▁magnitude	-8469
▁Route	-8470
▁clouds	-8471
▁directions	-8472
▁tact	-8473
▁spoken	-8474
▁universities	-8475
And	-8476
▁folk	-8477
▁campus	-8478
----	-8479
ideo	-8480
▁wings	-8481
obile	-8482
▁scheme	-8483
BM	-8484
▁Business	-8485
▁reasonable	-8486
▁Try	-8487
▁Reading	-8488
▁Princip	-8489
iner	-8490
olving	-8491
▁finger	-8492
inth	-8493
▁Hop	-8494
▁Six	-8495
▁Arthur	-8496
▁Species	-8497
▁shortly	-8498
iological	-8499
HS	-8500
rive	-8501
▁Log	-8502
▁Mess	-8503
▁antibiotics	-8504
▁ranging	-8505
▁Cup	-8506
▁Yes	-8507
▁Lind	-8508
atre	-8509
▁embry	-8510
attered	-8511
▁Walk	-8512
▁prisoners	-8513
▁availability	-8514
ela	-8515
▁succeeded	-8516
▁registered	-8517
books	-8518
rh	-8519
▁dipl	-8520
▁wheat	-8521
asts	-8522
▁Kennedy	-8523
▁manuscript	-8524
▁12,	-8525
▁overwhel	-8526
▁objectives	-8527
▁Sher	-8528
▁attitude	-8529
▁MA	-8530
▁waiting	-8531
%.	-8532
rene	-8533
▁bought	-8534
▁intention	-8535
▁atmospheric	-8536
▁Abraham	-8537
▁immigrants	-8538
hyd	-8539
▁CP	-8540
▁Cell	-8541
▁neuro	-8542
▁glucose	-8543
▁villages	-8544
▁acknowled	-8545
But	-8546
▁Ash	-8547
▁mixture	-8548
▁raising	-8549
▁compound	-8550
▁Gh	-8551
▁hidden	-8552
▁automatically	-8553
▁Hon	-8554
▁mammals	-8555
▁NC	-8556
▁sees	-8557
▁exercises	-8558
kind	-8559
▁cort	-8560
operative	-8561
▁consisting	-8562
MA	-8563
ials	-8564
aren	-8565
▁corresponding	-8566
49	-8567
non	-8568
▁conclus	-8569
▁habitats	-8570
▁dominant	-8571
ois	-8572
▁advis	-8573
▁notion	-8574
________	-8575
▁boundaries	-8576
▁Brig	-8577
▁loose	-8578
▁styles	-8579
▁Bal	-8580
▁fan	-8581
▁Allah	-8582
▁adverse	-8583
▁ecosystems	-8584
ceans	-8585
▁declined	-8586
▁realized	-8587
olph	-8588
▁Turn	-8589
▁attribut	-8590
▁gathered	-8591
▁particle	-8592
▁Neg	-8593
▁Local	-8594
▁reveals	-8595
▁Set	-8596
▁tip	-8597
▁Connect	-8598
▁psychology	-8599
ema	-8600
uation	-8601
heastern	-8602
▁selling	-8603
▁literacy	-8604
▁minerals	-8605
▁Farm	-8606
▁gent	-8607
▁entertain	-8608
▁CDC	-8609
▁deleg	-8610
▁complications	-8611
▁179	-8612
▁irrit	-8613
night	-8614
▁2015	-8615
▁enthus	-8616
▁dynamic	-8617
▁missions	-8618
▁loved	-8619
▁Reference	-8620
azz	-8621
▁Bru	-8622
▁maybe	-8623
run	-8624
-200	-8625
vals	-8626
▁Ins	-8627
▁Avoid	-8628
erts	-8629
▁soph	-8630
▁Egyptian	-8631
▁Ten	-8632
▁Action	-8633
▁census	-8634
▁studio	-8635
▁microb	-8636
▁Emperor	-8637
▁Wikipedia	-8638
oids	-8639
▁torn	-8640
▁Ident	-8641
▁protecting	-8642
▁Sem	-8643
▁brothers	-8644
▁incorporated	-8645
▁Iss	-8646
▁span	-8647
forest	-8648
irms	-8649
▁Series	-8650
▁ecological	-8651
olves	-8652
▁Duke	-8653
▁Taylor	-8654
▁bigger	-8655
▁respiratory	-8656
▁FA	-8657
iterranean	-8658
▁describing	-8659
▁Full	-8660
▁mosqu	-8661
▁worry	-8662
▁Korean	-8663
▁Diet	-8664
▁devast	-8665
insula	-8666
▁Radio	-8667
▁reduces	-8668
▁predicted	-8669
rait	-8670
▁Tit	-8671
▁unw	-8672
rings	-8673
▁bare	-8674
ceedings	-8675
velt	-8676
▁quantum	-8677
▁priority	-8678
▁cooperation	-8679
▁restoration	-8680
▁Gil	-8681
▁sciences	-8682
▁CH	-8683
▁cord	-8684
▁regulation	-8685
They	-8686
▁plenty	-8687
teb	-8688
adow	-8689
▁tut	-8690
▁genus	-8691
▁cooking	-8692
▁Did	-8693
▁supplements	-8694
▁transmitted	-8695
▁Clinical	-8696
ologically	-8697
▁knowing	-8698
▁Vit	-8699
position	-8700
▁suscept	-8701
▁unlikely	-8702
umer	-8703
cho	-8704
mony	-8705
▁trail	-8706
▁deploy	-8707
▁default	-8708
▁Line	-8709
omatic	-8710
▁protective	-8711
▁watching	-8712
▁regardless	-8713
▁nice	-8714
▁ID	-8715
▁Sud	-8716
ubble	-8717
▁Code	-8718
▁excessive	-8719
▁perception	-8720
ashed	-8721
▁Contact	-8722
▁interactive	-8723
▁laser	-8724
▁Berlin	-8725
▁Invest	-8726
▁reaches	-8727
▁Right	-8728
▁Monday	-8729
▁heaven	-8730
ventions	-8731
▁charges	-8732
▁suspect	-8733
▁surprised	-8734
▁bag	-8735
apped	-8736
eting	-8737
▁suit	-8738
▁parad	-8739
▁attributed	-8740
▁ampl	-8741
▁appeal	-8742
uits	-8743
▁Hem	-8744
osevelt	-8745
▁duties	-8746
▁underground	-8747
Sp	-8748
tw	-8749
▁Upd	-8750
▁Samuel	-8751
eping	-8752
onomic	-8753
▁erect	-8754
▁Greece	-8755
▁restaur	-8756
▁forecast	-8757
▁vaccines	-8758
.:	-8759
▁unem	-8760
▁personality	-8761
▁herb	-8762
▁origins	-8763
rose	-8764
▁asc	-8765
▁rend	-8766
▁labour	-8767
trans	-8768
▁seriously	-8769
burgh	-8770
▁feat	-8771
▁Death	-8772
▁weigh	-8773
▁affairs	-8774
▁essay	-8775
▁manufacturers	-8776
yan	-8777
▁cub	-8778
▁Resp	-8779
▁mouse	-8780
agle	-8781
inent	-8782
iscons	-8783
▁reflected	-8784
vi	-8785
▁kg	-8786
▁suddenly	-8787
▁identifying	-8788
ket	-8789
▁Ren	-8790
▁Dougl	-8791
anna	-8792
print	-8793
▁lakes	-8794
▁subsc	-8795
▁stability	-8796
▁hal	-8797
▁Cape	-8798
▁outbreak	-8799
▁celebrated	-8800
neys	-8801
▁41	-8802
orus	-8803
▁Han	-8804
▁weakness	-8805
rity	-8806
▁summary	-8807
▁bom	-8808
isconsin	-8809
▁Digital	-8810
▁arranged	-8811
▁deer	-8812
▁Records	-8813
▁identical	-8814
CE	-8815
rix	-8816
ipher	-8817
MP	-8818
▁tens	-8819
▁strain	-8820
▁telling	-8821
▁historians	-8822
▁lob	-8823
engers	-8824
irus	-8825
▁trem	-8826
ometer	-8827
▁Nether	-8828
▁comprom	-8829
▁Hom	-8830
agnetic	-8831
▁mature	-8832
▁cow	-8833
▁pairs	-8834
▁cotton	-8835
▁conversion	-8836
atus	-8837
ieth	-8838
▁offices	-8839
▁scholar	-8840
▁strange	-8841
▁humanity	-8842
▁sediment	-8843
▁customers	-8844
▁43	-8845
▁Jean	-8846
ogenic	-8847
▁privile	-8848
▁Victoria	-8849
▁Song	-8850
▁Team	-8851
BA	-8852
▁978	-8853
▁rom	-8854
▁marg	-8855
▁client	-8856
▁wisdom	-8857
▁Roosevelt	-8858
’.	-8859
▁disk	-8860
▁empty	-8861
▁button	-8862
▁painted	-8863
▁trigger	-8864
▁fires	-8865
79	-8866
pton	-8867
▁unn	-8868
66	-8869
▁fing	-8870
▁enjoyed	-8871
▁Isa	-8872
▁Linux	-8873
▁surviv	-8874
▁Mediterranean	-8875
sor	-8876
▁decay	-8877
abulary	-8878
▁Garden	-8879
▁varied	-8880
▁disrupt	-8881
▁striking	-8882
▁invention	-8883
▁perceived	-8884
oons	-8885
▁Rest	-8886
▁Protest	-8887
▁Univers	-8888
▁restore	-8889
▁Louisiana	-8890
▁biodiversity	-8891
berry	-8892
▁metabol	-8893
requ	-8894
▁sect	-8895
iva	-8896
▁faces	-8897
▁WW	-8898
iversary	-8899
▁administrative	-8900
▁readily	-8901
▁incidence	-8902
▁Hu	-8903
▁Ve	-8904
▁sovere	-8905
imp	-8906
▁Text	-8907
▁camps	-8908
▁1900	-8909
▁veloc	-8910
▁sacred	-8911
▁reconst	-8912
▁hospitals	-8913
▁meteor	-8914
▁metres	-8915
▁Biology	-8916
▁Matthew	-8917
SP	-8918
han	-8919
mod	-8920
▁publ	-8921
▁Games	-8922
▁Infant	-8923
▁deeper	-8924
▁gods	-8925
▁Incre	-8926
▁treaty	-8927
▁Scottish	-8928
▁criticism	-8929
oline	-8930
▁Adam	-8931
▁fra	-8932
cially	-8933
▁ingredients	-8934
▁prayer	-8935
▁emerging	-8936
▁Date	-8937
▁tort	-8938
ustain	-8939
▁breaking	-8940
▁pace	-8941
▁2009,	-8942
▁convert	-8943
▁schedule	-8944
cin	-8945
▁lifetime	-8946
anted	-8947
▁Leon	-8948
▁gray	-8949
▁craft	-8950
▁soils	-8951
FC	-8952
▁Miller	-8953
▁valley	-8954
▁Math	-8955
▁lock	-8956
aya	-8957
rency	-8958
▁diag	-8959
ridges	-8960
▁2012,	-8961
▁Aud	-8962
▁Turk	-8963
▁beneath	-8964
▁Kentucky	-8965
▁lighting	-8966
▁Rand	-8967
▁degrad	-8968
▁favour	-8969
▁ultimate	-8970
▁aggressive	-8971
▁Five	-8972
42	-8973
▁ninet	-8974
aug	-8975
▁00	-8976
illery	-8977
▁hopes	-8978
▁surre	-8979
achment	-8980
▁Command	-8981
zyme	-8982
▁consisted	-8983
▁volunteers	-8984
asma	-8985
▁17,	-8986
▁Fox	-8987
▁dict	-8988
▁scope	-8989
▁Others	-8990
▁correctly	-8991
▁profile	-8992
▁distinguished	-8993
▁ho	-8994
▁pel	-8995
▁milit	-8996
▁profit	-8997
▁engineer	-8998
▁20,	-8999
▁reserve	-9000
▁tong	-9001
▁Satur	-9002
▁rated	-9003
▁regime	-9004
▁mood	-9005
▁approval	-9006
▁translated	-9007
being	-9008
▁Similarly	-9009
▁Wisconsin	-9010
How	-9011
▁SP	-9012
▁Image	-9013
itic	-9014
▁Brad	-9015
▁Adams	-9016
▁Thanks	-9017
▁investigate	-9018
mn	-9019
icts	-9020
▁enl	-9021
▁disability	-9022
▁Show	-9023
▁Based	-9024
bel	-9025
▁Ra	-9026
▁linear	-9027
▁Trade	-9028
▁bears	-9029
▁praised	-9030
▁providers	-9031
▁cure	-9032
▁penet	-9033
▁Fa	-9034
.),	-9035
▁Map	-9036
▁Win	-9037
▁injured	-9038
▁happening	-9039
▁establishing	-9040
▁Unt	-9041
▁reputation	-9042
▁56	-9043
atial	-9044
▁lens	-9045
▁bleeding	-9046
▁mercury	-9047
▁boundary	-9048
▁hypothesis	-9049
▁controversial	-9050
▁suicide	-9051
When	-9052
▁aims	-9053
iously	-9054
▁affecting	-9055
▁naval	-9056
▁overcome	-9057
▁producer	-9058
▁legit	-9059
▁paintings	-9060
imen	-9061
▁restricted	-9062
door	-9063
▁Move	-9064
▁sunlight	-9065
▁Tar	-9066
▁2008,	-9067
▁Clark	-9068
▁CT	-9069
ethe	-9070
aping	-9071
▁gast	-9072
▁aster	-9073
▁cuts	-9074
▁pert	-9075
▁Whether	-9076
cking	-9077
▁persu	-9078
▁differ	-9079
▁documented	-9080
III	-9081
▁guitar	-9082
▁mail	-9083
▁manifest	-9084
▁publications	-9085
▁vig	-9086
▁rooms	-9087
▁teens	-9088
ceeding	-9089
▁behavioral	-9090
gr	-9091
▁Gro	-9092
▁caps	-9093
▁Afghan	-9094
▁welfare	-9095
▁distinction	-9096
▁9,	-9097
▁Chap	-9098
icking	-9099
▁burned	-9100
▁videos	-9101
action	-9102
▁liberal	-9103
▁termin	-9104
▁promoted	-9105
vy	-9106
▁Moses	-9107
▁beach	-9108
grad	-9109
▁FDA	-9110
▁Rod	-9111
▁Model	-9112
▁tower	-9113
▁permitted	-9114
85	-9115
▁storms	-9116
▁Franklin	-9117
▁Physical	-9118
▁adjacent	-9119
▁restrictions	-9120
▁classification	-9121
▁Exam	-9122
▁cash	-9123
▁rear	-9124
▁Schools	-9125
teenth	-9126
▁Carib	-9127
▁convention	-9128
▁surrounded	-9129
▁determining	-9130
.1	-9131
▁2007,	-9132
▁abilities	-9133
▁themes	-9134
▁confront	-9135
▁Scientific	-9136
iry	-9137
▁Prom	-9138
▁participated	-9139
esh	-9140
inian	-9141
▁overl	-9142
▁calculated	-9143
▁tu	-9144
▁Dyn	-9145
▁seasons	-9146
▁conversation	-9147
See	-9148
law	-9149
ashes	-9150
▁pale	-9151
▁trace	-9152
iblical	-9153
▁Indiana	-9154
ospel	-9155
▁yard	-9156
▁dimin	-9157
▁adolesc	-9158
▁flooding	-9159
▁Tour	-9160
▁scheduled	-9161
idge	-9162
▁wider	-9163
▁yards	-9164
▁shapes	-9165
▁Highway	-9166
▁dismiss	-9167
▁capabilities	-9168
▁Es	-9169
abama	-9170
▁quantities	-9171
oga	-9172
▁guess	-9173
▁deeply	-9174
zes	-9175
▁Hig	-9176
▁empire	-9177
▁jurisd	-9178
hire	-9179
▁Freed	-9180
▁legend	-9181
▁consumed	-9182
icing	-9183
▁ancestors	-9184
▁promoting	-9185
▁specimens	-9186
▁dramatically	-9187
CA	-9188
onal	-9189
▁representatives	-9190
ymes	-9191
▁Prime	-9192
▁diarr	-9193
:5	-9194
▁1989	-9195
▁versus	-9196
igue	-9197
unct	-9198
▁ranges	-9199
▁Francis	-9200
▁Analysis	-9201
inton	-9202
▁segment	-9203
▁admitted	-9204
▁clothes	-9205
▁drivers	-9206
▁discussions	-9207
rue	-9208
▁literally	-9209
▁Rose	-9210
▁varies	-9211
▁collapse	-9212
▁Standards	-9213
Sc	-9214
▁fans	-9215
▁requiring	-9216
▁CE	-9217
ayer	-9218
shire	-9219
▁wounded	-9220
▁medieval	-9221
▁Hispan	-9222
▁Netherlands	-9223
ribe	-9224
▁14,	-9225
▁vice	-9226
▁priest	-9227
▁Assessment	-9228
▁deficiency	-9229
▁Cra	-9230
▁constra	-9231
▁thermal	-9232
▁semi	-9233
▁honey	-9234
▁genome	-9235
▁Daily	-9236
▁livestock	-9237
▁influences	-9238
▁Nevertheless	-9239
▁Sa	-9240
▁Mother	-9241
▁deliber	-9242
▁encl	-9243
▁Transport	-9244
▁addresses	-9245
▁prevented	-9246
▁probability	-9247
▁Trust	-9248
aternal	-9249
▁surveys	-9250
▁narrative	-9251
▁Ah	-9252
▁Adm	-9253
▁Ford	-9254
▁2011,	-9255
▁sizes	-9256
▁Observ	-9257
▁gif	-9258
▁Master	-9259
▁enemies	-9260
▁challenging	-9261
aneous	-9262
▁consequence	-9263
olds	-9264
onald	-9265
▁Archives	-9266
▁entrance	-9267
▁sustained	-9268
▁advantages	-9269
▁developments	-9270
▁Java	-9271
▁Proble	-9272
▁friendly	-9273
agen	-9274
▁bron	-9275
▁Given	-9276
▁obser	-9277
▁embra	-9278
▁excav	-9279
GS	-9280
onomy	-9281
▁Sound	-9282
▁consec	-9283
▁notable	-9284
▁Hindu	-9285
utenant	-9286
unar	-9287
▁abol	-9288
eld	-9289
▁Wars	-9290
▁Freder	-9291
▁Product	-9292
▁exhibition	-9293
pow	-9294
▁Prim	-9295
▁myself	-9296
▁crossing	-9297
emet	-9298
page	-9299
▁sodium	-9300
amins	-9301
▁rebu	-9302
▁Harry	-9303
▁casual	-9304
▁computing	-9305
nov	-9306
uting	-9307
text	-9308
ushing	-9309
▁healthcare	-9310
▁limitations	-9311
OW	-9312
ohyd	-9313
▁surg	-9314
lights	-9315
▁exclud	-9316
▁emotions	-9317
▁Represent	-9318
▁revers	-9319
▁settlers	-9320
▁occupation	-9321
ilton	-9322
▁estate	-9323
▁Physics	-9324
nings	-9325
▁Poly	-9326
▁shed	-9327
▁devoted	-9328
▁surprise	-9329
▁provisions	-9330
uality	-9331
▁Census	-9332
▁Anderson	-9333
▁Exp	-9334
▁pill	-9335
▁dating	-9336
vol	-9337
–19	-9338
▁soy	-9339
▁Alabama	-9340
▁dietary	-9341
▁160	-9342
▁Barb	-9343
▁neighb	-9344
▁authent	-9345
▁duration	-9346
uty	-9347
▁tag	-9348
▁Belg	-9349
▁kilometers	-9350
Re	-9351
▁coc	-9352
▁grades	-9353
▁bacterial	-9354
▁sending	-9355
NS	-9356
▁Batt	-9357
▁cough	-9358
▁vocal	-9359
▁package	-9360
▁Sn	-9361
▁Diego	-9362
▁visits	-9363
▁separation	-9364
▁Nazi	-9365
▁catalog	-9366
▁wonderful	-9367
,'	-9368
▁85	-9369
roud	-9370
▁Ent	-9371
▁Chris	-9372
▁cheap	-9373
▁Imper	-9374
▁tanks	-9375
▁amazing	-9376
▁relating	-9377
▁partnership	-9378
▁Argent	-9379
▁candidates	-9380
▁comfortable	-9381
atories	-9382
▁savings	-9383
▁exciting	-9384
eries	-9385
▁shorter	-9386
olly	-9387
health	-9388
▁Defense	-9389
ogs	-9390
▁MP	-9391
▁Iowa	-9392
▁doctrine	-9393
▁requirement	-9394
azon	-9395
▁Place	-9396
pert	-9397
▁advances	-9398
▁suggesting	-9399
uv	-9400
ixt	-9401
▁optical	-9402
izers	-9403
▁judgment	-9404
▁productivity	-9405
profit	-9406
ulsion	-9407
▁couldn	-9408
▁Computer	-9409
41	-9410
▁Ark	-9411
▁trick	-9412
▁wearing	-9413
arts	-9414
▁cyl	-9415
ught	-9416
▁anthrop	-9417
▁educators	-9418
▁incent	-9419
▁flexible	-9420
▁Gir	-9421
iative	-9422
▁distinguish	-9423
enda	-9424
▁sixth	-9425
▁spray	-9426
emetery	-9427
▁Remember	-9428
▁technological	-9429
▁Ak	-9430
chester	-9431
▁Ancient	-9432
▁chamber	-9433
▁galaxies	-9434
▁pries	-9435
ictions	-9436
▁Microsoft	-9437
▁innovative	-9438
nut	-9439
through	-9440
▁borrow	-9441
▁wouldn	-9442
▁attitudes	-9443
▁confident	-9444
▁aver	-9445
erness	-9446
▁Staff	-9447
▁disag	-9448
▁Hurricane	-9449
▁gardens	-9450
▁encounter	-9451
On	-9452
iro	-9453
▁OS	-9454
lined	-9455
▁physically	-9456
43	-9457
▁Story	-9458
▁partially	-9459
▁sophistic	-9460
enter	-9461
▁develops	-9462
chest	-9463
▁wise	-9464
regular	-9465
▁Nation	-9466
▁Ult	-9467
▁Kids	-9468
▁bull	-9469
irable	-9470
▁harder	-9471
▁symbols	-9472
▁Reserve	-9473
▁alongside	-9474
▁Jun	-9475
▁tone	-9476
▁Working	-9477
▁prosper	-9478
▁electrons	-9479
▁adaptation	-9480
▁Pap	-9481
EG	-9482
OD	-9483
essee	-9484
▁McG	-9485
▁dental	-9486
▁sessions	-9487
▁specialized	-9488
OP	-9489
▁throat	-9490
▁curve	-9491
▁controversy	-9492
▁Lar	-9493
▁ownership	-9494
cut	-9495
▁13,	-9496
▁ion	-9497
ographer	-9498
▁simultaneously	-9499
▁Altern	-9500
lah	-9501
▁Kim	-9502
▁2006.	-9503
▁finish	-9504
▁Mountains	-9505
▁transplant	-9506
fare	-9507
oven	-9508
▁18,	-9509
▁fired	-9510
▁counties	-9511
▁focusing	-9512
disc	-9513
▁16,	-9514
▁displays	-9515
▁equation	-9516
▁predomin	-9517
▁profound	-9518
TM	-9519
rell	-9520
▁mounted	-9521
▁controlling	-9522
▁incred	-9523
▁minimal	-9524
▁writings	-9525
▁Earl	-9526
▁till	-9527
▁wooden	-9528
▁lecture	-9529
▁SC	-9530
▁Tues	-9531
▁edited	-9532
BI	-9533
▁boats	-9534
▁stake	-9535
▁manual	-9536
▁safely	-9537
▁dominated	-9538
akespe	-9539
▁saving	-9540
▁Spe	-9541
▁lip	-9542
▁Tele	-9543
mented	-9544
▁holiday	-9545
▁Philosoph	-9546
Cl	-9547
▁puzz	-9548
▁titled	-9549
▁municipal	-9550
▁95	-9551
amil	-9552
oil	-9553
anium	-9554
icity	-9555
istence	-9556
▁insight	-9557
▁Lawrence	-9558
▁Opp	-9559
▁grains	-9560
▁Put	-9561
▁extens	-9562
Sh	-9563
orms	-9564
▁doses	-9565
▁batteries	-9566
jo	-9567
▁1)	-9568
▁Mach	-9569
isition	-9570
▁planting	-9571
▁submitted	-9572
▁horizontal	-9573
Ex	-9574
▁convey	-9575
▁routes	-9576
▁founder	-9577
▁utility	-9578
yo	-9579
▁DVD	-9580
▁RNA	-9581
▁ham	-9582
▁minds	-9583
uclear	-9584
▁metals	-9585
rub	-9586
▁coat	-9587
▁prox	-9588
friend	-9589
▁arc	-9590
▁Jane	-9591
▁pneum	-9592
▁handling	-9593
▁accompany	-9594
▁introduce	-9595
▁elementary	-9596
▁sensitivity	-9597
▁holy	-9598
▁Thurs	-9599
akespeare	-9600
▁Anne	-9601
▁Military	-9602
▁peer	-9603
▁Broad	-9604
iovascular	-9605
▁processed	-9606
angel	-9607
▁noticed	-9608
▁varying	-9609
▁deposits	-9610
▁innovation	-9611
child	-9612
world	-9613
▁league	-9614
gener	-9615
▁Large	-9616
▁spots	-9617
▁complexity	-9618
▁gate	-9619
▁oste	-9620
!"	-9621
▁bees	-9622
.’	-9623
▁sheep	-9624
▁smell	-9625
▁factory	-9626
ordan	-9627
▁neurons	-9628
▁libraries	-9629
▁Cook	-9630
▁Help	-9631
▁worker	-9632
▁expanding	-9633
▁Confederate	-9634
▁contributing	-9635
▁ease	-9636
forced	-9637
▁evacu	-9638
▁Philip	-9639
▁Kat	-9640
osexual	-9641
▁printing	-9642
▁UC	-9643
▁tab	-9644
▁elabor	-9645
▁titles	-9646
▁3:	-9647
▁Pear	-9648
▁arrested	-9649
▁continent	-9650
RS	-9651
▁dow	-9652
▁briefly	-9653
▁Tennessee	-9654
▁NOT	-9655
▁Exec	-9656
shaped	-9657
▁adopt	-9658
▁crimes	-9659
▁Bon	-9660
▁Neu	-9661
▁rod	-9662
▁Pow	-9663
▁contrad	-9664
▁restored	-9665
▁confusion	-9666
eli	-9667
▁Astron	-9668
▁haven	-9669
▁planted	-9670
▁popularity	-9671
▁Dor	-9672
▁dil	-9673
▁pap	-9674
▁meals	-9675
▁verse	-9676
ructive	-9677
▁intermedi	-9678
▁fallen	-9679
▁targeted	-9680
▁productive	-9681
emed	-9682
▁Historic	-9683
▁Mes	-9684
▁Real	-9685
osphere	-9686
▁partial	-9687
▁opinions	-9688
▁Ont	-9689
▁Index	-9690
▁Rather	-9691
▁cleaning	-9692
▁constitutional	-9693
▁Which	-9694
▁conce	-9695
▁accomplish	-9696
▁extinction	-9697
▁Whit	-9698
▁Strate	-9699
onent	-9700
agraph	-9701
▁altered	-9702
fast	-9703
▁rays	-9704
▁receives	-9705
▁Available	-9706
▁telephone	-9707
iminary	-9708
▁Commons	-9709
ocket	-9710
▁Hunt	-9711
anol	-9712
▁Run	-9713
71	-9714
rets	-9715
ersion	-9716
▁Caribbean	-9717
▁discipline	-9718
oves	-9719
▁Bah	-9720
▁Method	-9721
▁barrier	-9722
▁calendar	-9723
▁contrary	-9724
▁Collection	-9725
mouth	-9726
▁fles	-9727
▁tends	-9728
▁painful	-9729
▁Saturday	-9730
▁21,	-9731
▁Utah	-9732
▁fifty	-9733
▁Support	-9734
▁extraord	-9735
duate	-9736
▁Sweden	-9737
▁philos	-9738
▁passion	-9739
ifier	-9740
inced	-9741
▁Often	-9742
▁Print	-9743
▁robot	-9744
▁ceremony	-9745
▁instances	-9746
▁precisely	-9747
▁resistant	-9748
▁physicians	-9749
▁Mrs	-9750
acles	-9751
▁frust	-9752
▁invited	-9753
▁enforcement	-9754
burn	-9755
▁aside	-9756
▁Centers	-9757
▁accomplished	-9758
annel	-9759
▁contaminated	-9760
illy	-9761
▁Les	-9762
▁Golden	-9763
▁newspapers	-9764
rac	-9765
▁Foot	-9766
▁logical	-9767
▁equipped	-9768
▁Individual	-9769
▁Front	-9770
▁oceans	-9771
▁orange	-9772
▁presum	-9773
▁channels	-9774
▁organism	-9775
▁completion	-9776
▁concentrated	-9777
)||	-9778
▁phenomena	-9779
▁functioning	-9780
▁NS	-9781
▁PA	-9782
idae	-9783
onto	-9784
otten	-9785
▁gift	-9786
orer	-9787
▁Ger	-9788
▁Sac	-9789
▁Introduction	-9790
di	-9791
rett	-9792
▁Neb	-9793
▁ster	-9794
▁verb	-9795
▁erosion	-9796
▁beam	-9797
▁gross	-9798
2),	-9799
▁seiz	-9800
▁stere	-9801
▁Living	-9802
▁Sep	-9803
▁weapon	-9804
omal	-9805
▁Gener	-9806
▁Script	-9807
▁Magazine	-9808
▁removing	-9809
▁parameters	-9810
eman	-9811
▁Watch	-9812
▁assert	-9813
mentation	-9814
▁citizen	-9815
▁portions	-9816
▁Shakespeare	-9817
▁debris	-9818
▁dollar	-9819
▁spinal	-9820
terior	-9821
▁Being	-9822
▁Territ	-9823
▁membrane	-9824
TA	-9825
▁Fac	-9826
▁Impro	-9827
▁alarm	-9828
▁dimensions	-9829
▁PhD	-9830
▁Cond	-9831
▁tribe	-9832
▁Treaty	-9833
▁condem	-9834
▁Bad	-9835
▁Hun	-9836
▁Ross	-9837
▁Consider	-9838
▁preparing	-9839
▁NE	-9840
words	-9841
▁Statistics	-9842
73	-9843
▁rival	-9844
▁10,000	-9845
▁galaxy	-9846
Se	-9847
▁Tuesday	-9848
▁analyze	-9849
▁Cold	-9850
▁Talk	-9851
▁reserves	-9852
pdf	-9853
green	-9854
▁headed	-9855
estone	-9856
mental	-9857
▁argues	-9858
▁equality	-9859
▁integration	-9860
▁GM	-9861
▁Ele	-9862
▁Upon	-9863
▁atomic	-9864
sex	-9865
▁Pa	-9866
keley	-9867
ouses	-9868
▁tied	-9869
▁applies	-9870
▁velocity	-9871
▁reproductive	-9872
sters	-9873
chnology	-9874
▁imperial	-9875
▁responded	-9876
aki	-9877
▁Ku	-9878
otan	-9879
▁19,	-9880
▁unsu	-9881
▁Culture	-9882
▁indirect	-9883
▁parliament	-9884
onna	-9885
▁sensors	-9886
▁hill	-9887
▁bands	-9888
▁module	-9889
oen	-9890
▁sad	-9891
yr	-9892
▁Avenue	-9893
▁22,	-9894
▁myster	-9895
etically	-9896
▁trading	-9897
▁civilization	-9898
▁2)	-9899
▁Summer	-9900
▁malaria	-9901
▁convinced	-9902
▁strategic	-9903
▁theoretical	-9904
▁Case	-9905
▁cave	-9906
▁anniversary	-9907
dd	-9908
▁Tan	-9909
ishers	-9910
aga	-9911
▁Bart	-9912
▁Country	-9913
▁marketing	-9914
omon	-9915
▁Bor	-9916
▁Photo	-9917
▁keeps	-9918
▁perpet	-9919
▁Thursday	-9920
▁rating	-9921
▁satisfact	-9922
▁Hyd	-9923
hard	-9924
▁Mit	-9925
▁2006,	-9926
▁Wednes	-9927
onom	-9928
▁Iron	-9929
▁Allen	-9930
▁arise	-9931
▁Awards	-9932
▁denied	-9933
▁permit	-9934
▁register	-9935
▁collective	-9936
▁puts	-9937
▁hydro	-9938
▁retire	-9939
▁telescope	-9940
▁Luther	-9941
▁Process	-9942
▁protest	-9943
▁illnesses	-9944
▁punishment	-9945
sun	-9946
iy	-9947
▁inev	-9948
hedral	-9949
▁artif	-9950
▁eleph	-9951
lee	-9952
▁breaks	-9953
wa	-9954
▁Alf	-9955
▁commod	-9956
▁arrangement	-9957
▁Li	-9958
icut	-9959
iley	-9960
▁explos	-9961
▁intens	-9962
▁ranked	-9963
▁relatives	-9964
▁possession	-9965
▁surprising	-9966
adium	-9967
▁retain	-9968
▁Edition	-9969
▁abundant	-9970
▁overse	-9971
▁retired	-9972
▁Memorial	-9973
▁Teachers	-9974
▁tap	-9975
▁diver	-9976
gic	-9977
▁northwest	-9978
arth	-9979
▁Pas	-9980
▁align	-9981
▁blank	-9982
▁Wright	-9983
▁executed	-9984
acon	-9985
aver	-9986
ATION	-9987
▁Marg	-9988
▁drew	-9989
▁northeast	-9990
▁Site	-9991
holders	-9992
▁actively	-9993
▁economics	-9994
stic	-9995
isting	-9996
▁coinc	-9997
▁totally	-9998
▁forty	-9999
▁tubes	-10000
▁prescribed	-10001
▁dying	-10002
hr	-10003
▁rib	-10004
▁feels	-10005
▁suspected	-10006
UL	-10007
also	-10008
otion	-10009
▁enzyme	-10010
▁Corporation	-10011
74	-10012
▁3-	-10013
▁burden	-10014
▁sequences	-10015
▁Has	-10016
▁1000	-10017
▁Fall	-10018
▁skull	-10019
▁Mission	-10020
▁volumes	-10021
▁Nutrition	-10022
▁contamination	-10023
laim	-10024
isons	-10025
▁infin	-10026
▁vocabulary	-10027
▁52	-10028
▁nick	-10029
▁container	-10030
acre	-10031
gged	-10032
▁parks	-10033
▁recovered	-10034
▁pesticides	-10035
▁differently	-10036
▁Hal	-10037
instein	-10038
▁Evolution	-10039
▁everywhere	-10040
▁Lady	-10041
author	-10042
▁Harrison	-10043
▁Additional	-10044
▁(10	-10045
▁penal	-10046
▁paying	-10047
▁stabil	-10048
▁discharge	-10049
▁qualified	-10050
▁irrigation	-10051
’,	-10052
▁Future	-10053
▁absorbed	-10054
▁qualities	-10055
ko	-10056
▁Event	-10057
▁chances	-10058
▁invasive	-10059
▁conflicts	-10060
emor	-10061
▁Cro	-10062
elson	-10063
▁loop	-10064
▁plates	-10065
▁carries	-10066
▁indicating	-10067
No	-10068
▁Tib	-10069
▁Hell	-10070
▁fatty	-10071
▁blacks	-10072
▁supplied	-10073
grade	-10074
fire	-10075
▁23,	-10076
▁Hou	-10077
▁mart	-10078
▁invented	-10079
▁facilitate	-10080
▁Nich	-10081
▁enact	-10082
▁perfectly	-10083
isphere	-10084
▁matches	-10085
▁IT	-10086
▁gay	-10087
eland	-10088
▁auto	-10089
iatric	-10090
▁chron	-10091
▁hills	-10092
▁Number	-10093
▁arrive	-10094
▁prevalence	-10095
▁fled	-10096
▁Behav	-10097
▁Until	-10098
▁websites	-10099
▁54	-10100
▁Mos	-10101
upiter	-10102
68	-10103
aft	-10104
▁Cred	-10105
▁cable	-10106
▁abundance	-10107
▁coral	-10108
velength	-10109
ropolitan	-10110
▁analyzed	-10111
▁artistic	-10112
▁reinforce	-10113
alry	-10114
ools	-10115
▁consent	-10116
▁emotion	-10117
▁Bat	-10118
▁retained	-10119
▁render	-10120
▁inherent	-10121
▁tendency	-10122
▁statistical	-10123
irty	-10124
▁McK	-10125
acher	-10126
▁Douglas	-10127
▁cluster	-10128
▁Infantry	-10129
AF	-10130
amic	-10131
ammad	-10132
▁beet	-10133
▁healing	-10134
▁elevated	-10135
▁suggestions	-10136
▁Joe	-10137
▁cig	-10138
orney	-10139
▁dairy	-10140
▁viral	-10141
▁Walter	-10142
▁feather	-10143
▁shallow	-10144
▁divisions	-10145
ja	-10146
▁2005,	-10147
ipe	-10148
▁Fisher	-10149
▁fraction	-10150
▁Tradition	-10151
▁Dom	-10152
▁pushed	-10153
▁Facebook	-10154
▁monument	-10155
▁Ban	-10156
▁Prior	-10157
dy	-10158
made	-10159
▁Healthwise	-10160
▁Cit	-10161
▁175	-10162
ingham	-10163
▁crust	-10164
▁freely	-10165
▁summar	-10166
▁releases	-10167
▁competitive	-10168
UT	-10169
▁Vill	-10170
▁pine	-10171
▁thyroid	-10172
▁traveled	-10173
▁corporate	-10174
▁Az	-10175
▁Video	-10176
▁alien	-10177
▁Symptoms	-10178
▁expectations	-10179
allow	-10180
▁hier	-10181
lahoma	-10182
entieth	-10183
▁Democr	-10184
▁Dak	-10185
▁listening	-10186
▁territories	-10187
GE	-10188
▁Wy	-10189
▁Clean	-10190
▁lingu	-10191
▁cycles	-10192
▁scales	-10193
▁severely	-10194
▁Throughout	-10195
▁conservative	-10196
▁hung	-10197
▁influential	-10198
pre	-10199
▁Ball	-10200
▁axis	-10201
▁clay	-10202
▁elig	-10203
▁fant	-10204
▁Prize	-10205
▁aspir	-10206
▁compost	-10207
▁Mathemat	-10208
▁managers	-10209
▁accurately	-10210
▁Ni	-10211
▁Jordan	-10212
CP	-10213
De	-10214
▁Benj	-10215
▁Bishop	-10216
▁managing	-10217
▁Level	-10218
▁width	-10219
ternoon	-10220
▁Live	-10221
▁dent	-10222
illance	-10223
expected	-10224
▁currency	-10225
▁visiting	-10226
▁Wednesday	-10227
▁expertise	-10228
▁CS	-10229
▁Night	-10230
▁alleged	-10231
▁execution	-10232
nia	-10233
▁Bh	-10234
▁ride	-10235
▁mystery	-10236
▁swimming	-10237
ders	-10238
tery	-10239
▁oxid	-10240
▁Political	-10241
▁NG	-10242
▁embed	-10243
▁patri	-10244
▁Turkey	-10245
lyn	-10246
▁66	-10247
▁Begin	-10248
▁reflects	-10249
Os	-10250
▁Qur	-10251
▁prol	-10252
▁prosec	-10253
▁tongue	-10254
▁58	-10255
▁12.	-10256
▁700	-10257
acle	-10258
urse	-10259
▁PDF	-10260
▁export	-10261
▁hybrid	-10262
▁ethical	-10263
▁seasonal	-10264
▁interventions	-10265
▁Kir	-10266
▁panels	-10267
▁allergic	-10268
about	-10269
▁Final	-10270
▁meter	-10271
▁sensor	-10272
▁surgical	-10273
achel	-10274
▁clos	-10275
▁loan	-10276
▁zones	-10277
▁dated	-10278
▁consume	-10279
▁residential	-10280
▁Fri	-10281
zymes	-10282
▁Bol	-10283
▁joy	-10284
▁gran	-10285
▁march	-10286
lastname	-10287
▁Indonesia	-10288
▁Links	-10289
▁installation	-10290
wall	-10291
adequ	-10292
rible	-10293
▁Pict	-10294
▁pitch	-10295
▁Writing	-10296
▁bearing	-10297
▁broader	-10298
▁concert	-10299
▁overs	-10300
▁Object	-10301
ountered	-10302
▁shelter	-10303
▁precipitation	-10304
commun	-10305
▁canal	-10306
▁Imperial	-10307
▁absolutely	-10308
RL	-10309
▁1988	-10310
osaurs	-10311
▁radar	-10312
▁elderly	-10313
▁tack	-10314
▁membership	-10315
original	-10316
▁Depression	-10317
rank	-10318
rink	-10319
▁Apple	-10320
▁51	-10321
▁fate	-10322
ivities	-10323
▁Animal	-10324
▁enables	-10325
▁democratic	-10326
ilst	-10327
imore	-10328
▁Arist	-10329
▁Romans	-10330
▁mutations	-10331
isa	-10332
arians	-10333
▁explosion	-10334
phal	-10335
inery	-10336
▁Along	-10337
▁evaluated	-10338
jud	-10339
▁scr	-10340
▁Marx	-10341
▁magnet	-10342
▁pollut	-10343
▁announce	-10344
▁Ib	-10345
▁Yellow	-10346
▁castle	-10347
▁Student	-10348
▁acceptable	-10349
▁presidential	-10350
oting	-10351
encing	-10352
▁Recent	-10353
specific	-10354
▁11.	-10355
▁Pain	-10356
▁Maine	-10357
ocolate	-10358
▁Conserv	-10359
▁diagnostic	-10360
▁encountered	-10361
▁exclusively	-10362
To	-10363
Our	-10364
omed	-10365
▁Oil	-10366
▁railway	-10367
▁distinctive	-10368
bow	-10369
▁Ide	-10370
▁Simon	-10371
▁doors	-10372
▁attempting	-10373
role	-10374
▁vag	-10375
▁rent	-10376
▁aging	-10377
▁Tok	-10378
▁wed	-10379
▁gest	-10380
▁assets	-10381
▁Training	-10382
▁Norway	-10383
▁defects	-10384
ceeds	-10385
▁Hence	-10386
▁applying	-10387
Le	-10388
yard	-10389
▁25,	-10390
▁kings	-10391
▁hardly	-10392
▁salmon	-10393
▁Jupiter	-10394
97	-10395
ctors	-10396
▁1987	-10397
▁Anth	-10398
itches	-10399
▁anten	-10400
▁enabled	-10401
▁overview	-10402
ques	-10403
▁Fig	-10404
▁Buddh	-10405
ournals	-10406
▁attributes	-10407
▁ol	-10408
▁rac	-10409
▁relate	-10410
LC	-10411
eared	-10412
▁Comb	-10413
▁Theory	-10414
▁placing	-10415
▁preservation	-10416
▁throw	-10417
▁Oklahoma	-10418
▁volcanic	-10419
▁Base	-10420
▁Brook	-10421
▁Years	-10422
▁headquarters	-10423
inch	-10424
▁Ros	-10425
▁Beach	-10426
▁crowd	-10427
▁globe	-10428
▁submar	-10429
▁shoulder	-10430
▁practition	-10431
▁Num	-10432
▁rhythm	-10433
▁Orthodox	-10434
▁Conc	-10435
▁Marshall	-10436
▁conclusions	-10437
umns	-10438
actic	-10439
restrial	-10440
▁pediatric	-10441
▁immigration	-10442
▁obsc	-10443
▁traits	-10444
▁Olympic	-10445
▁reservoir	-10446
esty	-10447
▁Moh	-10448
▁crossed	-10449
▁ears	-10450
▁races	-10451
▁Certain	-10452
▁republic	-10453
▁recycling	-10454
▁Hawaii	-10455
▁vom	-10456
▁1986	-10457
▁bell	-10458
▁disput	-10459
▁weekly	-10460
▁accused	-10461
▁fatigue	-10462
▁Publishing	-10463
▁mira	-10464
▁sacrifice	-10465
uster	-10466
▁enhanced	-10467
▁Connecticut	-10468
sub	-10469
names	-10470
▁Rain	-10471
▁forb	-10472
mentia	-10473
▁licensed	-10474
▁searching	-10475
▁Job	-10476
ateral	-10477
▁wound	-10478
▁revenue	-10479
▁nineteenth	-10480
▁radioactive	-10481
300	-10482
alks	-10483
rels	-10484
▁30,	-10485
ocaust	-10486
▁grace	-10487
▁barriers	-10488
▁administered	-10489
▁developmental	-10490
▁sophisticated	-10491
oler	-10492
▁sew	-10493
urable	-10494
▁Interest	-10495
▁analyses	-10496
▁Pit	-10497
▁rocket	-10498
▁Hart	-10499
▁Armen	-10500
▁Nobel	-10501
▁notably	-10502
mic	-10503
seud	-10504
▁Film	-10505
▁Gord	-10506
▁crash	-10507
▁posts	-10508
▁impair	-10509
▁attractive	-10510
▁Vo	-10511
▁Nort	-10512
▁Howard	-10513
▁binding	-10514
▁stating	-10515
▁featuring	-10516
▁operational	-10517
CH	-10518
iph	-10519
▁votes	-10520
▁vac	-10521
▁gains	-10522
▁behalf	-10523
▁coordin	-10524
▁wages	-10525
▁strains	-10526
▁traveling	-10527
:00	-10528
igate	-10529
▁fingers	-10530
▁nutrient	-10531
▁scenario	-10532
aze	-10533
neg	-10534
eling	-10535
rology	-10536
ighters	-10537
▁Benjamin	-10538
▁mold	-10539
▁Moore	-10540
▁Return	-10541
64	-10542
range	-10543
▁belt	-10544
▁Urban	-10545
▁grants	-10546
▁Ontario	-10547
▁initiatives	-10548
▁irregular	-10549
▁181	-10550
agger	-10551
▁Path	-10552
▁Castle	-10553
▁patent	-10554
▁Persian	-10555
▁bladder	-10556
▁celebrate	-10557
▁collecting	-10558
ori	-10559
icked	-10560
▁morph	-10561
▁surviving	-10562
▁2005.	-10563
▁retreat	-10564
▁performances	-10565
ylon	-10566
omical	-10567
▁amongst	-10568
▁sentences	-10569
▁Month	-10570
▁poorly	-10571
rowth	-10572
▁commands	-10573
▁predators	-10574
Ind	-10575
tain	-10576
▁irre	-10577
▁absorb	-10578
▁phones	-10579
▁possibilities	-10580
2-	-10581
▁therm	-10582
imensional	-10583
▁inherited	-10584
IST	-10585
▁HTML	-10586
▁asks	-10587
▁Berkeley	-10588
▁swelling	-10589
odge	-10590
▁Electric	-10591
▁specialist	-10592
▁wavelength	-10593
oard	-10594
▁GDP	-10595
▁onset	-10596
uct	-10597
▁liberty	-10598
▁illustrated	-10599
▁pH	-10600
▁cerv	-10601
spring	-10602
▁Steve	-10603
▁singing	-10604
sequently	-10605
▁adoption	-10606
▁complement	-10607
olas	-10608
rimin	-10609
▁rememb	-10610
▁ruling	-10611
▁attracted	-10612
▁Hug	-10613
oving	-10614
▁Bird	-10615
▁Tech	-10616
▁Brain	-10617
rip	-10618
arer	-10619
▁tape	-10620
ctu	-10621
shore	-10622
▁panc	-10623
▁educated	-10624
▁Commer	-10625
ceptions	-10626
▁Austria	-10627
▁Examples	-10628
▁debut	-10629
▁eaten	-10630
▁drinks	-10631
▁Teaching	-10632
%,	-10633
othy	-10634
▁hurt	-10635
ysical	-10636
▁Integ	-10637
▁survivors	-10638
▁regulatory	-10639
▁reson	-10640
▁recall	-10641
PDF	-10642
▁Lib	-10643
▁Hans	-10644
iating	-10645
▁loyal	-10646
▁mines	-10647
▁Box	-10648
▁accordance	-10649
▁definitions	-10650
▁Square	-10651
▁Foreign	-10652
▁(8	-10653
fold	-10654
▁28,	-10655
elect	-10656
▁golden	-10657
▁spir	-10658
formed	-10659
▁Allied	-10660
▁mirror	-10661
▁spreading	-10662
bro	-10663
fly	-10664
▁Rap	-10665
▁lasted	-10666
▁powered	-10667
rium	-10668
▁1945	-10669
▁Jenn	-10670
▁fault	-10671
▁charts	-10672
▁passengers	-10673
▁Burn	-10674
▁noun	-10675
▁participating	-10676
Be	-10677
phy	-10678
▁Shar	-10679
▁cloth	-10680
▁brains	-10681
▁trains	-10682
▁arthritis	-10683
▁inflation	-10684
rise	-10685
▁Eric	-10686
▁2004,	-10687
sk	-10688
iens	-10689
keys	-10690
unes	-10691
▁Cab	-10692
▁worn	-10693
▁Freedom	-10694
rological	-10695
▁ul	-10696
iler	-10697
▁Sel	-10698
dep	-10699
bian	-10700
▁Byz	-10701
father	-10702
▁Fried	-10703
▁carbohyd	-10704
▁Pediatric	-10705
▁departments	-10706
ontin	-10707
▁bonds	-10708
▁Patrick	-10709
▁hormones	-10710
imm	-10711
owned	-10712
▁whales	-10713
efficient	-10714
▁speakers	-10715
▁afternoon	-10716
▁nutritional	-10717
▁unemployment	-10718
Ed	-10719
All	-10720
▁Tibet	-10721
▁locally	-10722
▁wetlands	-10723
▁artillery	-10724
▁(3)	-10725
▁hepat	-10726
▁compos	-10727
▁initiated	-10728
▁hang	-10729
▁Think	-10730
▁Toronto	-10731
▁Materials	-10732
▁negotiations	-10733
▁hip	-10734
▁progressive	-10735
▁susceptible	-10736
asa	-10737
▁Joh	-10738
▁Roc	-10739
▁knee	-10740
▁edges	-10741
▁residence	-10742
DL	-10743
MI	-10744
▁Dub	-10745
▁Bapt	-10746
lication	-10747
▁emperor	-10748
▁prolong	-10749
▁definitely	-10750
▁considerably	-10751
▁traditionally	-10752
pted	-10753
▁Tax	-10754
▁coins	-10755
▁lying	-10756
▁revolutionary	-10757
TP	-10758
▁Pier	-10759
▁Roberts	-10760
▁graphics	-10761
arest	-10762
thood	-10763
▁stayed	-10764
▁Seattle	-10765
▁colored	-10766
▁repeatedly	-10767
▁Wolf	-10768
▁juice	-10769
▁severity	-10770
▁fats	-10771
dess	-10772
▁Alan	-10773
▁nodes	-10774
▁Hamilton	-10775
▁unexpected	-10776
▁commissioned	-10777
▁HP	-10778
bled	-10779
icals	-10780
▁molecule	-10781
▁happiness	-10782
QL	-10783
ji	-10784
▁horn	-10785
▁emission	-10786
▁situated	-10787
▁offensive	-10788
▁cardiovascular	-10789
esy	-10790
arded	-10791
▁Trib	-10792
▁anat	-10793
▁pursue	-10794
▁paragraph	-10795
imeter	-10796
intend	-10797
▁solely	-10798
bul	-10799
▁Rub	-10800
ogens	-10801
erving	-10802
▁codes	-10803
▁Affairs	-10804
▁tension	-10805
▁Published	-10806
▁Flu	-10807
▁Typ	-10808
▁wireless	-10809
▁frog	-10810
onymous	-10811
▁tunnel	-10812
▁Regional	-10813
▁Educational	-10814
▁memor	-10815
▁masses	-10816
▁borders	-10817
▁fossils	-10818
▁diarrhea	-10819
▁intr	-10820
▁downt	-10821
▁spell	-10822
▁divers	-10823
▁ow	-10824
▁27,	-10825
▁Self	-10826
▁formerly	-10827
▁vitamins	-10828
▁addressing	-10829
▁celebration	-10830
▁prel	-10831
▁Anton	-10832
▁Paper	-10833
▁mainstream	-10834
▁ON	-10835
inea	-10836
▁tremend	-10837
▁afterwards	-10838
▁Oak	-10839
▁cel	-10840
▁chicken	-10841
▁columns	-10842
▁meaningful	-10843
▁orientation	-10844
▁UV	-10845
warf	-10846
▁brill	-10847
▁Patients	-10848
▁athletes	-10849
▁Syd	-10850
apore	-10851
▁wash	-10852
▁ozone	-10853
That	-10854
vens	-10855
▁Der	-10856
▁sel	-10857
lings	-10858
▁Ages	-10859
▁Accessed	-10860
▁perf	-10861
liance	-10862
▁inequ	-10863
▁scrap	-10864
▁Parents	-10865
agu	-10866
▁arbit	-10867
▁encouraging	-10868
DR	-10869
▁bits	-10870
▁anger	-10871
▁Should	-10872
▁Alexand	-10873
istically	-10874
▁minimize	-10875
▁talks	-10876
▁reproduction	-10877
▁130	-10878
▁reh	-10879
oning	-10880
wealth	-10881
▁ceremon	-10882
▁Mand	-10883
ampion	-10884
▁sheets	-10885
▁Vitamin	-10886
▁crack	-10887
▁gentle	-10888
▁inadequ	-10889
▁infectious	-10890
imedia	-10891
olis	-10892
arched	-10893
▁watched	-10894
▁disappear	-10895
▁Manchester	-10896
▁110	-10897
▁joints	-10898
▁pleasure	-10899
aza	-10900
iolet	-10901
▁Anim	-10902
▁Chile	-10903
▁hoped	-10904
▁spark	-10905
▁24,	-10906
abling	-10907
▁flesh	-10908
▁solving	-10909
itzerland	-10910
ibli	-10911
ocent	-10912
▁update	-10913
pectives	-10914
▁vegetable	-10915
▁extraordinary	-10916
ez	-10917
▁Mike	-10918
▁anch	-10919
iosity	-10920
▁buying	-10921
▁whenever	-10922
▁Afghanistan	-10923
iscal	-10924
ogram	-10925
▁wells	-10926
▁rescue	-10927
▁Sustain	-10928
▁requested	-10929
▁originated	-10930
.2	-10931
PL	-10932
advant	-10933
▁airpl	-10934
▁dozen	-10935
▁voting	-10936
▁proport	-10937
▁balanced	-10938
▁prostate	-10939
▁consistently	-10940
▁cream	-10941
▁opens	-10942
▁submit	-10943
▁compass	-10944
▁Psychology	-10945
▁alternatives	-10946
▁sket	-10947
▁margin	-10948
▁speeds	-10949
▁divide	-10950
▁Bos	-10951
rared	-10952
▁insu	-10953
▁basket	-10954
▁refugees	-10955
▁inspiration	-10956
72	-10957
▁Kong	-10958
▁2000,	-10959
▁directory	-10960
▁intelligent	-10961
rage	-10962
▁biof	-10963
▁pink	-10964
▁2013.	-10965
▁basin	-10966
▁Diabetes	-10967
▁workshop	-10968
▁sustainability	-10969
▁valve	-10970
▁picked	-10971
▁plasma	-10972
▁spatial	-10973
▁Resource	-10974
▁systematic	-10975
UM	-10976
▁Flow	-10977
▁Doctor	-10978
▁retail	-10979
▁compact	-10980
TER	-10981
▁shooting	-10982
▁Baltimore	-10983
▁counterpart	-10984
▁Cru	-10985
▁Inv	-10986
▁odd	-10987
▁bats	-10988
▁legacy	-10989
▁lyrics	-10990
▁license	-10991
▁chapters	-10992
FS	-10993
▁Aqu	-10994
▁Muh	-10995
▁bass	-10996
▁vibr	-10997
▁actors	-10998
▁enters	-10999
▁virtue	-11000
▁vaccination	-11001
orious	-11002
▁Brian	-11003
▁Domin	-11004
▁beans	-11005
▁revised	-11006
▁confused	-11007
▁Executive	-11008
.]	-11009
▁pou	-11010
imony	-11011
acular	-11012
otypes	-11013
▁Camer	-11014
▁abroad	-11015
▁eliminated	-11016
▁dish	-11017
▁trauma	-11018
▁promising	-11019
▁recommends	-11020
▁substantially	-11021
type	-11022
ioxid	-11023
essional	-11024
▁browser	-11025
▁monthly	-11026
▁stretch	-11027
▁publicly	-11028
▁commented	-11029
▁Maria	-11030
▁Saturn	-11031
▁100,000	-11032
▁provinces	-11033
amma	-11034
▁Amazon	-11035
▁welcome	-11036
▁scattered	-11037
▁appointment	-11038
▁26,	-11039
▁Cut	-11040
orship	-11041
▁guest	-11042
▁pound	-11043
▁learners	-11044
▁distances	-11045
▁bay	-11046
▁Tropical	-11047
thal	-11048
▁lasting	-11049
▁Cart	-11050
▁algae	-11051
▁repeat	-11052
▁cameras	-11053
▁rotation	-11054
▁fluor	-11055
reshold	-11056
▁Ka	-11057
igration	-11058
▁choosing	-11059
▁proclaim	-11060
▁developers	-11061
▁substitute	-11062
linary	-11063
▁proud	-11064
▁absent	-11065
▁brig	-11066
▁Israeli	-11067
▁Related	-11068
▁astronaut	-11069
▁Understanding	-11070
Pro	-11071
compass	-11072
▁whites	-11073
▁methane	-11074
▁promotion	-11075
▁antibodies	-11076
▁capability	-11077
▁politicians	-11078
▁transformation	-11079
▁4:	-11080
▁Lt	-11081
▁PL	-11082
uese	-11083
▁50%	-11084
▁Name	-11085
▁Russell	-11086
▁memories	-11087
▁Singapore	-11088
aund	-11089
ilty	-11090
▁Dick	-11091
▁satellites	-11092
▁”	-11093
▁bulk	-11094
roleum	-11095
▁tough	-11096
▁Twitter	-11097
▁algorithm	-11098
▁somewhere	-11099
▁Switzerland	-11100
▁Gib	-11101
▁Archae	-11102
▁landed	-11103
▁defence	-11104
▁wake	-11105
▁Police	-11106
▁throne	-11107
▁combine	-11108
▁distribut	-11109
▁obviously	-11110
▁53	-11111
▁NH	-11112
▁bapt	-11113
asures	-11114
▁circular	-11115
▁Architect	-11116
▁Frederick	-11117
▁calculate	-11118
asia	-11119
conn	-11120
▁1941	-11121
▁Mind	-11122
▁wage	-11123
▁drama	-11124
▁viewing	-11125
▁2000.	-11126
▁Defin	-11127
▁enzymes	-11128
▁Kings	-11129
ipation	-11130
▁Northwest	-11131
▁Industrial	-11132
even	-11133
▁gly	-11134
ropriate	-11135
▁Brother	-11136
▁regulate	-11137
▁achieving	-11138
69	-11139
aque	-11140
▁delayed	-11141
▁answered	-11142
Ad	-11143
▁1985	-11144
▁prophe	-11145
▁shares	-11146
▁extends	-11147
▁isolation	-11148
▁incorporate	-11149
-15	-11150
rup	-11151
eutic	-11152
▁grave	-11153
▁promised	-11154
▁Bio	-11155
acuum	-11156
▁hide	-11157
▁pond	-11158
▁Chall	-11159
▁epidem	-11160
▁dialogue	-11161
▁Holocaust	-11162
▁CN	-11163
iking	-11164
elihood	-11165
▁closest	-11166
▁Philippines	-11167
held	-11168
▁1800	-11169
▁Stock	-11170
▁acquire	-11171
▁Production	-11172
ollo	-11173
▁Ara	-11174
dominal	-11175
▁Arabic	-11176
▁yields	-11177
▁priests	-11178
▁guarantee	-11179
At	-11180
arter	-11181
usive	-11182
▁reven	-11183
feeding	-11184
▁Posted	-11185
▁experiencing	-11186
oa	-11187
iki	-11188
▁OR	-11189
oided	-11190
▁sperm	-11191
▁Sydney	-11192
▁alumin	-11193
▁legislative	-11194
▁drops	-11195
▁aggreg	-11196
▁intermediate	-11197
opl	-11198
tles	-11199
▁Fem	-11200
ersed	-11201
▁pose	-11202
otechnology	-11203
▁acceptance	-11204
▁reflection	-11205
▁Cuba	-11206
▁imprison	-11207
▁conducting	-11208
▁Lower	-11209
▁namely	-11210
▁courage	-11211
▁payment	-11212
▁Cass	-11213
▁Perform	-11214
▁succeed	-11215
▁civilian	-11216
▁basically	-11217
▁configuration	-11218
▁bes	-11219
▁gau	-11220
aning	-11221
▁Very	-11222
▁pulled	-11223
▁epidemic	-11224
▁supporters	-11225
400	-11226
▁amino	-11227
natural	-11228
▁needle	-11229
▁captain	-11230
▁archaeological	-11231
who	-11232
erto	-11233
▁mud	-11234
ulous	-11235
incial	-11236
▁meets	-11237
63	-11238
▁USDA	-11239
▁fart	-11240
▁mini	-11241
▁bills	-11242
▁firstname	-11243
FL	-11244
▁vic	-11245
▁Around	-11246
▁geographic	-11247
▁Magn	-11248
▁Cultural	-11249
▁Protestant	-11250
▁Championship	-11251
()	-11252
eav	-11253
tha	-11254
vae	-11255
plate	-11256
umatic	-11257
▁rebell	-11258
▁Lic	-11259
▁coin	-11260
▁avoided	-11261
▁outdoor	-11262
▁chemotherapy	-11263
yes	-11264
▁1.5	-11265
matic	-11266
▁rats	-11267
";	-11268
▁ADHD	-11269
▁Weather	-11270
▁southwest	-11271
▁philosophical	-11272
▁Pil	-11273
cular	-11274
▁Priv	-11275
▁Admiral	-11276
▁Risk	-11277
reement	-11278
▁sleeping	-11279
▁discoveries	-11280
▁noble	-11281
▁cellular	-11282
▁deterior	-11283
▁Amendment	-11284
▁Questions	-11285
▁hazardous	-11286
▁Liver	-11287
▁exploring	-11288
zan	-11289
▁Had	-11290
▁PMID	-11291
▁soldier	-11292
▁1942	-11293
▁alert	-11294
▁maxim	-11295
▁gasoline	-11296
▁Operation	-11297
▁neighbors	-11298
ECT	-11299
ocial	-11300
▁numer	-11301
▁drives	-11302
laration	-11303
▁referring	-11304
▁therapies	-11305
▁Mong	-11306
▁bin	-11307
▁Titan	-11308
▁rings	-11309
▁strand	-11310
▁modeling	-11311
▁fascinating	-11312
▁Dark	-11313
▁Making	-11314
▁Members	-11315
▁collaps	-11316
▁southeast	-11317
eres	-11318
▁Deep	-11319
▁Clinton	-11320
These	-11321
opter	-11322
▁drum	-11323
▁poems	-11324
▁persistent	-11325
alia	-11326
zech	-11327
actions	-11328
▁expend	-11329
▁99	-11330
▁fo	-11331
▁cous	-11332
▁bases	-11333
▁Newton	-11334
▁Houston	-11335
▁Currently	-11336
67	-11337
▁ED	-11338
erald	-11339
▁fluids	-11340
▁reasoning	-11341
.5	-11342
▁Ky	-11343
risk	-11344
▁forever	-11345
▁watershed	-11346
▁criticized	-11347
▁Tro	-11348
▁overt	-11349
▁elevation	-11350
▁interpreted	-11351
▁affil	-11352
▁femin	-11353
▁labels	-11354
▁accessed	-11355
▁gathering	-11356
▁Ru	-11357
▁Stew	-11358
▁gear	-11359
▁ought	-11360
▁thank	-11361
▁consensus	-11362
▁impressive	-11363
▁likelihood	-11364
▁Independence	-11365
▁Buddha	-11366
▁Collect	-11367
▁integrity	-11368
▁Venus	-11369
▁imposed	-11370
▁necessity	-11371
▁astronomers	-11372
ensing	-11373
▁Editor	-11374
▁kilometres	-11375
▁transformed	-11376
▁independently	-11377
▁72	-11378
▁alleg	-11379
▁ignor	-11380
▁unity	-11381
▁dementia	-11382
▁Proper	-11383
▁descriptions	-11384
auc	-11385
▁Tu	-11386
group	-11387
▁dried	-11388
▁ignored	-11389
▁sampling	-11390
▁thoroughly	-11391
din	-11392
▁Loc	-11393
▁abd	-11394
▁steady	-11395
bound	-11396
▁glob	-11397
▁lift	-11398
▁voted	-11399
▁certified	-11400
▁fertility	-11401
irs	-11402
uns	-11403
don	-11404
▁57	-11405
▁Zh	-11406
this	-11407
▁170	-11408
raine	-11409
ussion	-11410
▁shoes	-11411
▁adolescents	-11412
▁Alb	-11413
▁jet	-11414
▁Fourth	-11415
▁assessments	-11416
eps	-11417
itate	-11418
▁2004.	-11419
▁patch	-11420
▁rises	-11421
▁seats	-11422
▁Winter	-11423
▁Colonel	-11424
▁Document	-11425
▁$2	-11426
aved	-11427
▁pole	-11428
owners	-11429
▁dispute	-11430
▁remainder	-11431
▁Chron	-11432
▁bottle	-11433
▁ensuring	-11434
abilitation	-11435
▁commemor	-11436
▁Cry	-11437
▁fee	-11438
▁voters	-11439
dimensional	-11440
▁conjunction	-11441
▁overwhelming	-11442
case	-11443
▁WHO	-11444
▁exch	-11445
▁refrig	-11446
▁extending	-11447
▁prescription	-11448
▁Ow	-11449
list	-11450
▁shark	-11451
▁insert	-11452
▁Channel	-11453
▁Federation	-11454
reens	-11455
function	-11456
▁combust	-11457
▁connecting	-11458
away	-11459
▁FOR	-11460
▁phon	-11461
govern	-11462
▁resolve	-11463
▁seventh	-11464
▁synthetic	-11465
assium	-11466
▁coach	-11467
aughters	-11468
▁intensive	-11469
ups	-11470
▁bore	-11471
▁missed	-11472
▁colleges	-11473
▁Practice	-11474
▁comparable	-11475
arse	-11476
▁29,	-11477
▁extrem	-11478
▁explaining	-11479
▁illustrate	-11480
po	-11481
▁bee	-11482
auses	-11483
makers	-11484
▁powder	-11485
GB	-11486
▁Naval	-11487
▁alike	-11488
▁thrown	-11489
iast	-11490
ixon	-11491
▁contest	-11492
▁hazards	-11493
▁hepatitis	-11494
▁projected	-11495
high	-11496
▁Aer	-11497
ounce	-11498
▁Beat	-11499
isations	-11500
▁Protocol	-11501
▁memorial	-11502
▁cod	-11503
▁seal	-11504
▁singer	-11505
▁compete	-11506
▁baseball	-11507
▁tracking	-11508
▁genetically	-11509
▁determination	-11510
▁deemed	-11511
▁personally	-11512
vo	-11513
▁VI	-11514
▁Legisl	-11515
▁engaging	-11516
▁Portuguese	-11517
▁groundwater	-11518
1),	-11519
ais	-11520
uine	-11521
▁catast	-11522
▁vector	-11523
▁extinct	-11524
▁mapping	-11525
▁flexibility	-11526
orks	-11527
▁Unit	-11528
▁magic	-11529
▁constitute	-11530
▁ES	-11531
▁Bed	-11532
▁por	-11533
▁Hong	-11534
▁Sarah	-11535
▁Previous	-11536
eous	-11537
▁Hud	-11538
▁Core	-11539
▁pets	-11540
▁deadly	-11541
etheless	-11542
1:	-11543
▁TB	-11544
▁Gordon	-11545
▁attain	-11546
▁Buddhist	-11547
▁destination	-11548
sized	-11549
▁germ	-11550
person	-11551
▁assass	-11552
▁timber	-11553
economic	-11554
▁descent	-11555
▁disadvant	-11556
cat	-11557
▁circles	-11558
▁approached	-11559
May	-11560
▁Haz	-11561
▁Holly	-11562
▁Regiment	-11563
▁founding	-11564
▁synthesis	-11565
▁Sant	-11566
▁Croat	-11567
▁Upper	-11568
▁diets	-11569
▁sectors	-11570
PR	-11571
igs	-11572
▁dign	-11573
▁boxes	-11574
▁Besides	-11575
▁Declaration	-11576
▁imagination	-11577
veland	-11578
▁persec	-11579
▁Movement	-11580
eu	-11581
imic	-11582
▁Syn	-11583
▁1984	-11584
▁Basic	-11585
▁praise	-11586
▁aquatic	-11587
▁kitchen	-11588
▁genetics	-11589
▁passenger	-11590
▁overweight	-11591
▁Christopher	-11592
▁1944	-11593
▁Basin	-11594
▁essence	-11595
/19	-11596
asses	-11597
osity	-11598
▁Late	-11599
▁unto	-11600
▁Palestine	-11601
▁jurisdiction	-11602
▁Ze	-11603
ucks	-11604
ennis	-11605
▁coron	-11606
▁Turkish	-11607
▁defines	-11608
▁certific	-11609
▁embedded	-11610
▁uncertainty	-11611
▁associations	-11612
jan	-11613
▁thinks	-11614
▁undergo	-11615
▁chocolate	-11616
▁tolerance	-11617
▁sug	-11618
found	-11619
▁Shel	-11620
urred	-11621
▁harsh	-11622
▁Nelson	-11623
▁Quality	-11624
▁assumption	-11625
AB	-11626
LS	-11627
iffs	-11628
▁1890	-11629
▁divor	-11630
▁pec	-11631
▁Soft	-11632
▁gang	-11633
▁comparing	-11634
▁uter	-11635
▁compat	-11636
▁wealthy	-11637
aceut	-11638
flies	-11639
▁peers	-11640
▁strictly	-11641
▁allergies	-11642
▁Population	-11643
nty	-11644
▁1910	-11645
ulative	-11646
▁shield	-11647
▁expense	-11648
▁preliminary	-11649
▁demonstration	-11650
3),	-11651
ugs	-11652
▁Coal	-11653
▁actor	-11654
▁cheese	-11655
▁bullying	-11656
▁commanded	-11657
▁appreciate	-11658
▁manufactured	-11659
cts	-11660
log	-11661
▁MIT	-11662
▁loud	-11663
develop	-11664
▁Dakota	-11665
▁Morgan	-11666
▁shells	-11667
▁timing	-11668
▁disposal	-11669
▁Advanced	-11670
▁Robinson	-11671
▁Ye	-11672
▁Tal	-11673
▁ric	-11674
▁Fram	-11675
▁locate	-11676
▁festival	-11677
▁journals	-11678
▁campaigns	-11679
▁injection	-11680
▁ranks	-11681
▁diagram	-11682
▁thickness	-11683
wich	-11684
gered	-11685
▁chip	-11686
▁lunch	-11687
▁shots	-11688
▁Railroad	-11689
▁Stanford	-11690
▁altitude	-11691
▁constitu	-11692
▁interviews	-11693
pler	-11694
▁2003,	-11695
▁viewers	-11696
▁metabolism	-11697
▁investigations	-11698
iege	-11699
yers	-11700
▁140	-11701
▁Mun	-11702
▁Tree	-11703
▁Harris	-11704
▁implies	-11705
▁Nep	-11706
▁2003.	-11707
ecessary	-11708
▁listing	-11709
ompson	-11710
▁stops	-11711
▁Authority	-11712
ni	-11713
▁68	-11714
▁piano	-11715
▁assumptions	-11716
mill	-11717
▁dynamics	-11718
▁impression	-11719
▁bridges	-11720
▁Bry	-11721
▁Dur	-11722
▁fragments	-11723
▁occasions	-11724
▁bark	-11725
▁beds	-11726
▁Diseases	-11727
▁followers	-11728
hour	-11729
▁Eve	-11730
▁hits	-11731
▁occurrence	-11732
▁nurse	-11733
math	-11734
▁Lam	-11735
▁1979	-11736
▁declar	-11737
▁Einstein	-11738
▁primitive	-11739
▁electronics	-11740
▁Sin	-11741
▁1939	-11742
atherine	-11743
▁penalty	-11744
▁mutation	-11745
▁examining	-11746
▁threshold	-11747
▁convenient	-11748
path	-11749
▁bold	-11750
▁Anglo	-11751
▁steep	-11752
▁encompass	-11753
▁disappoint	-11754
imb	-11755
len	-11756
▁knock	-11757
▁warmer	-11758
▁secular	-11759
-11	-11760
▁chim	-11761
▁Czech	-11762
▁tries	-11763
▁Morris	-11764
▁undertaken	-11765
▁historically	-11766
▁pipe	-11767
▁78	-11768
obic	-11769
reck	-11770
▁Travel	-11771
▁emerge	-11772
ationally	-11773
▁smallest	-11774
Med	-11775
▁182	-11776
▁Pra	-11777
▁conve	-11778
▁hired	-11779
▁Napole	-11780
▁speaker	-11781
effective	-11782
▁clusters	-11783
▁formally	-11784
▁architectural	-11785
mus	-11786
mega	-11787
▁upl	-11788
▁Nuclear	-11789
▁clients	-11790
▁Festival	-11791
akh	-11792
raid	-11793
ricks	-11794
ailing	-11795
▁belonging	-11796
▁highlights	-11797
cal	-11798
esium	-11799
▁vomiting	-11800
okes	-11801
▁consp	-11802
▁probe	-11803
▁operators	-11804
you	-11805
▁PR	-11806
▁sacrific	-11807
▁outstanding	-11808
leans	-11809
▁glut	-11810
▁Syria	-11811
▁transf	-11812
ikh	-11813
▁61	-11814
▁Tai	-11815
▁2001,	-11816
powered	-11817
▁Genesis	-11818
▁Hopkins	-11819
▁Muhammad	-11820
▁challenged	-11821
600	-11822
ref	-11823
▁arrangements	-11824
ulture	-11825
urated	-11826
▁assessed	-11827
▁decreases	-11828
▁voluntary	-11829
TV	-11830
▁teaches	-11831
▁Row	-11832
▁indicators	-11833
MD	-11834
▁5:	-11835
▁Fif	-11836
▁seas	-11837
▁gland	-11838
▁Carbon	-11839
▁Includ	-11840
▁scarce	-11841
▁gallons	-11842
▁warfare	-11843
▁specimen	-11844
chron	-11845
▁strip	-11846
▁vapor	-11847
▁quoted	-11848
▁Monitor	-11849
▁compiled	-11850
▁brilliant	-11851
▁toll	-11852
▁carrier	-11853
▁artifacts	-11854
▁generating	-11855
▁respective	-11856
izz	-11857
lie	-11858
▁CR	-11859
oths	-11860
▁jun	-11861
atoes	-11862
▁stack	-11863
▁movies	-11864
▁Swedish	-11865
▁electrom	-11866
▁Hind	-11867
▁repet	-11868
graduate	-11869
▁replacing	-11870
▁Description	-11871
▁mask	-11872
▁longest	-11873
▁drawings	-11874
▁shipping	-11875
agus	-11876
opsy	-11877
▁amph	-11878
▁intra	-11879
▁conclude	-11880
kh	-11881
▁59	-11882
orse	-11883
▁Gram	-11884
▁sympt	-11885
▁Select	-11886
▁manufacturer	-11887
▁Lyn	-11888
▁inspect	-11889
▁moments	-11890
▁pharmac	-11891
▁Alliance	-11892
!!	-11893
▁monaster	-11894
▁Relations	-11895
▁Initiative	-11896
▁EN	-11897
stru	-11898
▁busy	-11899
orient	-11900
▁tourism	-11901
▁antioxid	-11902
▁Ches	-11903
▁Lang	-11904
▁Soon	-11905
▁thou	-11906
enders	-11907
▁melan	-11908
▁Results	-11909
▁integral	-11910
▁defensive	-11911
▁containers	-11912
▁Rio	-11913
▁menu	-11914
▁oils	-11915
rative	-11916
▁accidents	-11917
▁reception	-11918
My	-11919
▁mes	-11920
▁orchest	-11921
▁absorption	-11922
itus	-11923
▁Imm	-11924
▁Import	-11925
▁Universe	-11926
▁weakened	-11927
One	-11928
weg	-11929
▁Ottoman	-11930
▁excited	-11931
▁flowing	-11932
▁depicted	-11933
▁drainage	-11934
▁Philosophy	-11935
▁programmes	-11936
▁acknowledged	-11937
dis	-11938
plete	-11939
▁Need	-11940
▁Record	-11941
▁harass	-11942
▁Communist	-11943
▁muc	-11944
▁Answ	-11945
▁desk	-11946
▁depri	-11947
▁sword	-11948
▁cataly	-11949
▁tribal	-11950
▁inherit	-11951
▁congress	-11952
▁cam	-11953
arios	-11954
▁Mosc	-11955
▁reforms	-11956
▁organize	-11957
▁twentieth	-11958
▁Enc	-11959
▁lunar	-11960
▁Orleans	-11961
▁offspring	-11962
▁tremendous	-11963
angers	-11964
▁Literature	-11965
▁institutional	-11966
illes	-11967
▁Bruce	-11968
▁imported	-11969
▁descendants	-11970
utt	-11971
▁DE	-11972
▁bishop	-11973
▁genuine	-11974
▁operates	-11975
▁Peninsula	-11976
▁economies	-11977
▁calculations	-11978
.-	-11979
▁counts	-11980
▁volunteer	-11981
▁demonstrates	-11982
Hz	-11983
wind	-11984
▁Nat	-11985
▁desp	-11986
▁Parks	-11987
▁regen	-11988
▁frozen	-11989
▁quad	-11990
▁stems	-11991
activity	-11992
▁religions	-11993
▁authorized	-11994
▁sq	-11995
▁buck	-11996
▁employee	-11997
irie	-11998
rock	-11999
▁1880	-12000
ambers	-12001
ulator	-12002
▁Lakes	-12003
▁Storm	-12004
▁finance	-12005
▁instant	-12006
hn	-12007
▁Gard	-12008
▁digestive	-12009
comp	-12010
▁nas	-12011
▁beer	-12012
▁tomb	-12013
▁Period	-12014
▁discusses	-12015
▁engagement	-12016
▁USS	-12017
▁atom	-12018
▁2,000	-12019
▁recur	-12020
▁whale	-12021
▁Thompson	-12022
roit	-12023
▁seeks	-12024
▁eligible	-12025
▁corruption	-12026
▁PH	-12027
▁Cam	-12028
▁Kal	-12029
▁Pay	-12030
ranes	-12031
▁Roger	-12032
▁spite	-12033
reprene	-12034
▁hunger	-12035
▁Behavior	-12036
▁Squadron	-12037
▁agreements	-12038
1-	-12039
ERS	-12040
▁Queens	-12041
▁vacuum	-12042
▁fifteen	-12043
▁efficiently	-12044
▁remn	-12045
▁Canal	-12046
▁disappeared	-12047
income	-12048
▁hosts	-12049
▁artery	-12050
▁subtle	-12051
▁unclear	-12052
▁alternate	-12053
▁similarly	-12054
10.	-12055
▁Ce	-12056
endix	-12057
▁deck	-12058
▁marry	-12059
esthetic	-12060
▁graphic	-12061
▁Particip	-12062
▁10%	-12063
chell	-12064
▁feas	-12065
▁legislature	-12066
dam	-12067
iors	-12068
▁nic	-12069
▁numb	-12070
▁deriv	-12071
▁Silver	-12072
▁Present	-12073
▁uranium	-12074
▁Rena	-12075
▁drag	-12076
iances	-12077
▁fears	-12078
▁Annual	-12079
▁aboard	-12080
▁dinner	-12081
▁Usually	-12082
▁creature	-12083
thon	-12084
▁Amb	-12085
▁NAT	-12086
▁Say	-12087
front	-12088
▁larvae	-12089
▁forcing	-12090
▁prevents	-12091
▁Snow	-12092
▁metap	-12093
▁allies	-12094
▁guilty	-12095
▁conform	-12096
▁joining	-12097
▁poisoning	-12098
▁sponsored	-12099
▁63	-12100
▁leak	-12101
▁Ridge	-12102
▁brick	-12103
▁Cleveland	-12104
▁rum	-12105
▁Body	-12106
▁filed	-12107
ovenant	-12108
▁Ground	-12109
▁fibers	-12110
▁judges	-12111
▁shadow	-12112
▁Anthony	-12113
▁Agricultural	-12114
▁dub	-12115
▁perce	-12116
▁Apollo	-12117
▁carcin	-12118
▁Prophet	-12119
▁Emergency	-12120
erb	-12121
ardo	-12122
▁Raj	-12123
▁pix	-12124
▁nerves	-12125
▁monarch	-12126
▁98	-12127
▁NI	-12128
▁Gas	-12129
▁Publ	-12130
▁Categ	-12131
▁Phill	-12132
▁firms	-12133
▁heter	-12134
▁suppl	-12135
▁frequencies	-12136
▁ber	-12137
▁Hait	-12138
▁Kenn	-12139
▁kern	-12140
strong	-12141
▁grammar	-12142
▁mistake	-12143
▁floating	-12144
▁databases	-12145
five	-12146
pool	-12147
amation	-12148
▁insights	-12149
▁documentation	-12150
▁Past	-12151
ishops	-12152
▁juven	-12153
▁Multip	-12154
▁assembled	-12155
▁88	-12156
▁Si	-12157
▁Uk	-12158
▁Youth	-12159
▁conception	-12160
▁discussing	-12161
adi	-12162
▁Ps	-12163
▁bite	-12164
▁inver	-12165
▁Almost	-12166
▁Visual	-12167
▁contra	-12168
▁contracts	-12169
▁RE	-12170
hops	-12171
▁bicy	-12172
▁radi	-12173
▁2002,	-12174
▁Teacher	-12175
▁Constant	-12176
▁infantry	-12177
▁McD	-12178
ococc	-12179
▁1870	-12180
▁remed	-12181
▁guides	-12182
▁robust	-12183
▁operator	-12184
PD	-12185
ogl	-12186
▁97	-12187
▁Arn	-12188
▁Deb	-12189
▁Tell	-12190
▁makers	-12191
▁implementing	-12192
▁Opt	-12193
gebra	-12194
ierra	-12195
▁2001.	-12196
sl	-12197
ORD	-12198
▁banned	-12199
▁insufficient	-12200
UCN	-12201
▁Nan	-12202
isible	-12203
▁transit	-12204
▁Critical	-12205
py	-12206
▁Lith	-12207
▁honest	-12208
▁traged	-12209
▁charter	-12210
▁proposals	-12211
▁progression	-12212
upp	-12213
▁cin	-12214
▁Requ	-12215
▁bitter	-12216
▁Eventually	-12217
▁expressions	-12218
aton	-12219
▁Luke	-12220
▁stiff	-12221
▁Atlanta	-12222
92	-12223
ffe	-12224
▁Advent	-12225
▁petition	-12226
▁suppress	-12227
RNA	-12228
▁voy	-12229
cribe	-12230
▁Diagn	-12231
▁diesel	-12232
▁assignment	-12233
53	-12234
▁Juda	-12235
▁ruler	-12236
▁suspended	-12237
▁separately	-12238
yll	-12239
four	-12240
mates	-12241
▁acre	-12242
▁murd	-12243
▁nursing	-12244
▁appearing	-12245
▁correlation	-12246
="	-12247
aunt	-12248
elta	-12249
oved	-12250
▁177	-12251
▁Ori	-12252
heres	-12253
▁ties	-12254
▁currents	-12255
ige	-12256
▁62	-12257
▁isot	-12258
hematic	-12259
▁labeled	-12260
▁Commonwealth	-12261
▁continuously	-12262
93	-12263
94	-12264
▁Bud	-12265
▁Redu	-12266
▁dupl	-12267
▁travels	-12268
▁Antarctic	-12269
▁hol	-12270
▁Anti	-12271
▁customs	-12272
▁metabolic	-12273
▁surveillance	-12274
1/	-12275
ika	-12276
monary	-12277
generation	-12278
▁accounting	-12279
▁dictionary	-12280
▁boards	-12281
▁obese	-12282
▁Aristot	-12283
▁lacking	-12284
▁neighbour	-12285
▁transparent	-12286
afe	-12287
aments	-12288
▁oxide	-12289
▁Malays	-12290
▁overlook	-12291
▁acquisition	-12292
▁Morm	-12293
▁farmer	-12294
cedented	-12295
▁arteries	-12296
▁Different	-12297
▁inclusion	-12298
▁secretary	-12299
▁navigation	-12300
▁illustrations	-12301
zens	-12302
▁Was	-12303
olics	-12304
▁brush	-12305
▁digit	-12306
▁awards	-12307
▁warned	-12308
▁advised	-12309
utter	-12310
▁fails	-12311
▁terrain	-12312
▁Intellig	-12313
▁Argentina	-12314
lem	-12315
▁Sab	-12316
▁jew	-12317
▁Virt	-12318
▁lesser	-12319
▁avoiding	-12320
▁Southeast	-12321
fat	-12322
▁1968	-12323
▁discl	-12324
▁loans	-12325
▁fisheries	-12326
▁machinery	-12327
▁Ts	-12328
▁beta	-12329
▁costly	-12330
▁advertising	-12331
spe	-12332
▁Mas	-12333
lessly	-12334
▁Denmark	-12335
▁asteroid	-12336
▁Salt	-12337
▁affirm	-12338
▁airport	-12339
▁drilling	-12340
▁pressures	-12341
appropriate	-12342
▁Renaissance	-12343
▁grey	-12344
▁dwarf	-12345
▁speaks	-12346
▁closing	-12347
▁inquiry	-12348
▁equations	-12349
▁prohibited	-12350
▁documentary	-12351
▁1860	-12352
▁Clear	-12353
▁Norman	-12354
▁mutual	-12355
▁explored	-12356
▁segments	-12357
▁terminal	-12358
yt	-12359
▁Na	-12360
arms	-12361
▁hind	-12362
▁Theod	-12363
▁optimal	-12364
▁credited	-12365
▁marginal	-12366
▁Originally	-12367
emen	-12368
inus	-12369
▁toile	-12370
▁Region	-12371
▁defining	-12372
▁deployed	-12373
▁Joint	-12374
▁Download	-12375
▁exclusive	-12376
▁casualties	-12377
▁inadequate	-12378
▁motivation	-12379
▁retirement	-12380
uto	-12381
white	-12382
▁Drag	-12383
ennium	-12384
▁agenda	-12385
MC	-12386
yon	-12387
▁1982	-12388
▁Moscow	-12389
▁exceed	-12390
ccessful	-12391
sea	-12392
▁Tun	-12393
▁tet	-12394
▁Stra	-12395
▁exem	-12396
▁socio	-12397
▁Industry	-12398
▁Knowledge	-12399
▁freshwater	-12400
▁settlements	-12401
oping	-12402
▁1975	-12403
▁Bull	-12404
▁calm	-12405
▁spine	-12406
▁unions	-12407
▁requests	-12408
▁Battalion	-12409
▁remembered	-12410
Qu	-12411
pm	-12412
rill	-12413
▁sanct	-12414
▁noting	-12415
two	-12416
olia	-12417
▁Eval	-12418
▁Ever	-12419
▁Title	-12420
▁rubber	-12421
▁Olympics	-12422
avy	-12423
post	-12424
▁Roy	-12425
▁1972	-12426
▁Mort	-12427
▁nuts	-12428
arches	-12429
▁revel	-12430
▁Greeks	-12431
▁angles	-12432
▁settle	-12433
▁confined	-12434
▁publishing	-12435
ART	-12436
sky	-12437
via	-12438
▁pest	-12439
▁vine	-12440
atching	-12441
▁editors	-12442
▁scoring	-12443
▁inserted	-12444
58	-12445
▁EC	-12446
onge	-12447
▁melting	-12448
▁pneumonia	-12449
▁Ta	-12450
rost	-12451
ausea	-12452
▁appet	-12453
▁warri	-12454
▁Harbor	-12455
▁flights	-12456
▁Chemical	-12457
▁Hispanic	-12458
▁darkness	-12459
▁peripher	-12460
▁abdominal	-12461
▁earthquakes	-12462
lation	-12463
▁gifts	-12464
▁Puerto	-12465
▁dispar	-12466
alin	-12467
▁Cas	-12468
▁Nev	-12469
▁Mental	-12470
▁homosexual	-12471
By	-12472
conf	-12473
▁1969	-12474
▁Seven	-12475
▁Brigade	-12476
▁demanded	-12477
▁photography	-12478
▁organisation	-12479
WS	-12480
▁2002.	-12481
▁dangers	-12482
▁dynasty	-12483
▁realistic	-12484
▁intersection	-12485
Bl	-12486
anth	-12487
ellar	-12488
▁leuk	-12489
▁Homer	-12490
▁hotel	-12491
▁Planning	-12492
VI	-12493
hot	-12494
expl	-12495
,000.	-12496
▁deals	-12497
▁Alfred	-12498
▁endeav	-12499
▁neural	-12500
▁allergy	-12501
▁consecutive	-12502
pathy	-12503
▁Yale	-12504
▁grams	-12505
▁Zion	-12506
letter	-12507
▁Hudson	-12508
▁belongs	-12509
▁cardiac	-12510
▁escaped	-12511
▁farther	-12512
▁Margaret	-12513
▁citizenship	-12514
▁devastating	-12515
arb	-12516
uity	-12517
▁0.0	-12518
▁thesis	-12519
▁secured	-12520
▁Jonathan	-12521
▁Rabb	-12522
▁bias	-12523
▁tsun	-12524
▁Torah	-12525
▁reads	-12526
▁subur	-12527
▁Impact	-12528
▁depict	-12529
▁Question	-12530
▁pronounced	-12531
▁temporarily	-12532
Con	-12533
third	-12534
▁bars	-12535
▁spont	-12536
▁spokes	-12537
▁caution	-12538
▁Biological	-12539
erk	-12540
urd	-12541
▁flies	-12542
▁shade	-12543
▁unpre	-12544
▁burial	-12545
▁entity	-12546
▁viable	-12547
▁strikes	-12548
ccles	-12549
▁tang	-12550
▁Susan	-12551
▁Flight	-12552
▁Looking	-12553
▁blocked	-12554
▁limiting	-12555
▁tutorial	-12556
▁Construction	-12557
Ps	-12558
").	-12559
plus	-12560
icides	-12561
▁judicial	-12562
▁lb	-12563
weet	-12564
▁13.	-12565
▁1964	-12566
unning	-12567
▁Tokyo	-12568
▁paths	-12569
▁erected	-12570
▁sexually	-12571
▁interrupt	-12572
▁sufficiently	-12573
56	-12574
▁Fleet	-12575
▁Pharm	-12576
▁Senator	-12577
▁relieve	-12578
▁Observatory	-12579
▁dece	-12580
▁afraid	-12581
▁armies	-12582
▁hearts	-12583
▁ethanol	-12584
▁bip	-12585
▁acted	-12586
▁symmet	-12587
▁checked	-12588
▁advocates	-12589
▁designing	-12590
▁Hope	-12591
rophic	-12592
▁raises	-12593
▁pollutants	-12594
:0	-12595
aman	-12596
wick	-12597
ermat	-12598
▁bags	-12599
▁Bulgar	-12600
▁delight	-12601
▁consolid	-12602
▁Lieutenant	-12603
leys	-12604
▁reluct	-12605
▁regulated	-12606
▁altogether	-12607
▁approaching	-12608
appy	-12609
isan	-12610
isers	-12611
▁rows	-12612
▁Chair	-12613
▁Datab	-12614
▁ignore	-12615
▁nucleus	-12616
urrection	-12617
▁claiming	-12618
▁compensation	-12619
ipt	-12620
▁beef	-12621
▁dual	-12622
▁Walker	-12623
iplinary	-12624
▁Overall	-12625
▁surrender	-12626
chi	-12627
▁CL	-12628
▁Jay	-12629
▁unst	-12630
▁Ethiop	-12631
▁hosted	-12632
▁Gallery	-12633
iang	-12634
▁Dog	-12635
▁Bene	-12636
▁Nile	-12637
▁Exerc	-12638
▁ports	-12639
▁Credit	-12640
▁fitness	-12641
▁Proceedings	-12642
▁threatening	-12643
▁coordination	-12644
ignty	-12645
▁flew	-12646
▁toys	-12647
▁spelling	-12648
ruit	-12649
first	-12650
▁keys	-12651
▁Total	-12652
▁investigated	-12653
▁cro	-12654
▁wra	-12655
▁icon	-12656
ailand	-12657
▁ethics	-12658
▁filters	-12659
▁Fun	-12660
▁weekend	-12661
▁foundations	-12662
aux	-12663
energy	-12664
▁sorts	-12665
ante	-12666
▁dat	-12667
scill	-12668
▁1918	-12669
▁arose	-12670
▁feathers	-12671
▁passages	-12672
▁Europeans	-12673
▁76	-12674
▁1976	-12675
▁Buff	-12676
▁Imag	-12677
▁Poll	-12678
▁lith	-12679
▁precision	-12680
▁testimony	-12681
▁determines	-12682
▁legitimate	-12683
▁occasional	-12684
▁Cav	-12685
▁1974	-12686
▁truck	-12687
angular	-12688
▁privacy	-12689
▁distress	-12690
▁rendered	-12691
▁corporations	-12692
hol	-12693
ltry	-12694
▁cha	-12695
eterm	-12696
urbed	-12697
▁1983	-12698
▁Crown	-12699
▁spawn	-12700
▁synthes	-12701
▁ecl	-12702
olith	-12703
▁1943	-12704
▁lawn	-12705
▁quot	-12706
▁safer	-12707
▁eighth	-12708
▁intervals	-12709
▁premature	-12710
▁prolonged	-12711
cet	-12712
▁WH	-12713
orne	-12714
▁Tel	-12715
human	-12716
▁1850	-12717
▁Hills	-12718
▁trips	-12719
▁statue	-12720
▁Capital	-12721
!”	-12722
asury	-12723
▁Dream	-12724
▁angry	-12725
▁prone	-12726
▁autumn	-12727
▁SR	-12728
host	-12729
▁pollen	-12730
▁unders	-12731
▁password	-12732
▁acknowledge	-12733
uz	-12734
oub	-12735
uis	-12736
▁GN	-12737
▁Lev	-12738
▁Ple	-12739
▁Sky	-12740
▁ate	-12741
osures	-12742
▁spill	-12743
▁degradation	-12744
▁unprecedented	-12745
rade	-12746
▁cope	-12747
▁puls	-12748
▁genre	-12749
▁Planet	-12750
▁mankind	-12751
▁permits	-12752
▁Princeton	-12753
▁employers	-12754
▁indication	-12755
▁3)	-12756
rish	-12757
ocene	-12758
▁Band	-12759
▁node	-12760
▁syll	-12761
bourne	-12762
inding	-12763
▁tuber	-12764
▁payments	-12765
▁prompted	-12766
▁registration	-12767
▁Hi	-12768
▁ma	-12769
▁pride	-12770
▁eleven	-12771
▁intact	-12772
▁incorrect	-12773
▁encourages	-12774
PC	-12775
gus	-12776
▁Ern	-12777
▁Gab	-12778
letin	-12779
▁Hamp	-12780
▁pushing	-12781
▁trapped	-12782
▁Arkansas	-12783
▁overseas	-12784
▁competing	-12785
▁Geological	-12786
Pl	-12787
▁DS	-12788
▁IBM	-12789
▁Sri	-12790
▁Tob	-12791
▁sor	-12792
overs	-12793
▁maintains	-12794
▁continental	-12795
engu	-12796
▁Dead	-12797
▁Pent	-12798
▁gaps	-12799
▁soap	-12800
itated	-12801
▁median	-12802
▁modest	-12803
▁Institutes	-12804
IO	-12805
bin	-12806
▁gastro	-12807
▁whilst	-12808
▁proceed	-12809
▁reactor	-12810
▁warrant	-12811
▁geometry	-12812
mith	-12813
marks	-12814
school	-12815
▁Below	-12816
▁Brand	-12817
▁Michel	-12818
▁matrix	-12819
▁imagery	-12820
▁diagnose	-12821
▁animation	-12822
▁daughters	-12823
Res	-12824
▁retrie	-12825
olecular	-12826
▁biomass	-12827
▁newborn	-12828
▁successor	-12829
▁Brun	-12830
▁Horn	-12831
▁Norweg	-12832
▁sphere	-12833
▁Hungary	-12834
▁markers	-12835
▁assisted	-12836
▁interval	-12837
▁automatic	-12838
▁favorable	-12839
rer	-12840
igma	-12841
▁fulfill	-12842
▁strings	-12843
▁customer	-12844
xic	-12845
fits	-12846
▁oak	-12847
▁Born	-12848
azines	-12849
▁apple	-12850
▁bureau	-12851
▁gaining	-12852
So	-12853
itol	-12854
▁peaceful	-12855
cor	-12856
▁Verm	-12857
▁trap	-12858
▁Healthy	-12859
▁Delaware	-12860
▁interference	-12861
cled	-12862
▁Montana	-12863
▁heading	-12864
▁immense	-12865
▁Aboriginal	-12866
pa	-12867
asis	-12868
ewater	-12869
opathy	-12870
▁Kenya	-12871
▁Carter	-12872
▁opponents	-12873
ME	-12874
▁(“	-12875
heim	-12876
arding	-12877
▁empir	-12878
▁indoor	-12879
olutions	-12880
▁Element	-12881
▁pathways	-12882
▁attending	-12883
▁Background	-12884
▁67	-12885
▁Maj	-12886
onder	-12887
ysics	-12888
▁Mercury	-12889
▁disabled	-12890
pha	-12891
▁Mir	-12892
▁glory	-12893
▁recalled	-12894
▁dinosaurs	-12895
▁compliance	-12896
▁preference	-12897
▁modifications	-12898
best	-12899
▁Phoen	-12900
▁silent	-12901
▁damaging	-12902
uter	-12903
atile	-12904
▁blast	-12905
▁Sports	-12906
▁slower	-12907
▁united	-12908
▁Railway	-12909
eem	-12910
obi	-12911
▁Veter	-12912
ilateral	-12913
▁Kra	-12914
▁loaded	-12915
▁voices	-12916
▁enabling	-12917
▁attribute	-12918
EST	-12919
▁Nick	-12920
▁smok	-12921
▁pyram	-12922
▁receptor	-12923
▁transported	-12924
HT	-12925
igm	-12926
▁pulse	-12927
▁Steven	-12928
▁foster	-12929
▁Buddhism	-12930
▁geography	-12931
▁Gi	-12932
▁Vien	-12933
▁dump	-12934
▁palm	-12935
▁Friends	-12936
▁desirable	-12937
▁simulation	-12938
abs	-12939
umph	-12940
▁20%	-12941
▁cer	-12942
▁Juan	-12943
idency	-12944
ricanes	-12945
▁desper	-12946
▁Primary	-12947
▁Solomon	-12948
▁antibiotic	-12949
▁combustion	-12950
▁creativity	-12951
▁unnecessary	-12952
▁1967	-12953
screen	-12954
▁slope	-12955
▁strat	-12956
▁static	-12957
▁abdomen	-12958
▁healthier	-12959
mia	-12960
whe	-12961
▁96	-12962
▁1981	-12963
▁Khan	-12964
▁Chart	-12965
▁planes	-12966
▁Thailand	-12967
▁protects	-12968
▁musicians	-12969
▁potassium	-12970
▁Geographic	-12971
▁enterprise	-12972
lad	-12973
▁SE	-12974
track	-12975
▁Gray	-12976
▁fier	-12977
▁educate	-12978
▁dimension	-12979
))	-12980
elle	-12981
▁vow	-12982
giene	-12983
▁straw	-12984
▁fiscal	-12985
▁induced	-12986
▁entities	-12987
▁maternal	-12988
▁designers	-12989
▁seemingly	-12990
▁therapeutic	-12991
▁Consequently	-12992
▁CON	-12993
giving	-12994
▁phases	-12995
▁Billboard	-12996
▁chromosome	-12997
omot	-12998
amous	-12999
▁importantly	-13000
uble	-13001
▁2.5	-13002
▁IUCN	-13003
▁flavor	-13004
▁Register	-13005
▁incidents	-13006
FA	-13007
▁Ath	-13008
▁Ped	-13009
lades	-13010
▁novels	-13011
▁Catholics	-13012
▁mechanics	-13013
ili	-13014
ivan	-13015
▁14.	-13016
▁Cand	-13017
▁artic	-13018
▁utter	-13019
▁phrases	-13020
▁downtown	-13021
▁explicitly	-13022
opt	-13023
iller	-13024
▁Mechan	-13025
▁Express	-13026
▁Evidence	-13027
▁comprised	-13028
▁Visit	-13029
▁Belgium	-13030
▁chairman	-13031
▁symbolic	-13032
▁Generally	-13033
ROM	-13034
▁Sax	-13035
▁Link	-13036
▁zinc	-13037
▁cargo	-13038
▁herbs	-13039
▁forgotten	-13040
elsh	-13041
uliar	-13042
▁resolved	-13043
▁transmit	-13044
▁Technical	-13045
▁disasters	-13046
▁indicator	-13047
ths	-13048
eing	-13049
vised	-13050
▁NOAA	-13051
▁skilled	-13052
roximately	-13053
▁activists	-13054
▁prototype	-13055
ESS	-13056
date	-13057
arten	-13058
▁1965	-13059
▁upgrad	-13060
▁cyclone	-13061
▁theology	-13062
▁elaborate	-13063
▁emergence	-13064
imet	-13065
▁yes	-13066
▁mast	-13067
▁plug	-13068
▁Territory	-13069
▁signature	-13070
▁disciplines	-13071
AIDS	-13072
▁Plants	-13073
▁floods	-13074
▁considers	-13075
▁reportedly	-13076
▁extensively	-13077
▁investments	-13078
▁variability	-13079
attan	-13080
▁astronomy	-13081
▁scenarios	-13082
▁om	-13083
▁Bear	-13084
▁Give	-13085
▁chips	-13086
quality	-13087
riction	-13088
▁Against	-13089
lict	-13090
ctica	-13091
▁Negro	-13092
▁Effects	-13093
▁billions	-13094
▁Democrats	-13095
▁completing	-13096
▁predictions	-13097
▁AB	-13098
edge	-13099
▁Jos	-13100
▁Build	-13101
species	-13102
▁nominated	-13103
DC	-13104
▁profits	-13105
▁Campaign	-13106
▁Province	-13107
▁birthday	-13108
▁teachings	-13109
▁thereafter	-13110
▁entertainment	-13111
rea	-13112
reas	-13113
▁embod	-13114
▁slide	-13115
▁patron	-13116
▁Summary	-13117
eur	-13118
▁fest	-13119
▁tale	-13120
▁peaked	-13121
▁Gregory	-13122
unciation	-13123
▁applicable	-13124
pen	-13125
▁ic	-13126
regn	-13127
▁900	-13128
▁adul	-13129
▁clubs	-13130
▁Detroit	-13131
▁Republicans	-13132
▁Transportation	-13133
Ab	-13134
▁2-	-13135
iper	-13136
backs	-13137
rasound	-13138
thening	-13139
▁lining	-13140
▁ecology	-13141
▁filling	-13142
▁romantic	-13143
▁classrooms	-13144
PP	-13145
▁GPS	-13146
▁rif	-13147
▁melt	-13148
▁Isaac	-13149
▁hypert	-13150
▁talked	-13151
▁nationwide	-13152
▁considerations	-13153
hal	-13154
▁Fat	-13155
▁mant	-13156
itored	-13157
was	-13158
▁IL	-13159
▁31,	-13160
▁OCR	-13161
▁gut	-13162
▁sau	-13163
▁Beth	-13164
ochond	-13165
▁parish	-13166
▁sulfur	-13167
ournament	-13168
▁interven	-13169
▁Universal	-13170
▁Mi	-13171
arma	-13172
▁blo	-13173
▁stuck	-13174
▁yeast	-13175
▁offset	-13176
▁palace	-13177
▁purely	-13178
▁deficit	-13179
▁alphabet	-13180
pers	-13181
▁butt	-13182
▁Grade	-13183
▁Compar	-13184
▁faithful	-13185
▁stressed	-13186
▁entreprene	-13187
▁accommodate	-13188
▁Skin	-13189
▁Disney	-13190
▁Taking	-13191
▁fitted	-13192
oz	-13193
▁15.	-13194
▁Rab	-13195
▁1971	-13196
▁Insp	-13197
▁Angel	-13198
▁Minor	-13199
▁reefs	-13200
▁relates	-13201
▁washing	-13202
▁platforms	-13203
▁fertilizer	-13204
▁Mathematics	-13205
En	-13206
cht	-13207
▁4-	-13208
▁kin	-13209
▁cock	-13210
▁1999,	-13211
▁bowel	-13212
▁inland	-13213
▁Comment	-13214
▁precious	-13215
nex	-13216
▁crystal	-13217
▁Professional	-13218
▁da	-13219
stan	-13220
▁pupp	-13221
▁arsen	-13222
▁Colomb	-13223
▁fluctu	-13224
▁ingest	-13225
▁Popular	-13226
▁thunder	-13227
▁Personal	-13228
▁pointing	-13229
▁petroleum	-13230
2/	-13231
ixty	-13232
▁sends	-13233
▁Sierra	-13234
▁permanently	-13235
uli	-13236
orie	-13237
arming	-13238
▁Apost	-13239
▁heated	-13240
▁designer	-13241
▁regiment	-13242
▁Extension	-13243
▁observing	-13244
▁(0	-13245
▁Alt	-13246
▁Dra	-13247
▁Rol	-13248
▁helic	-13249
▁OK	-13250
they	-13251
▁Market	-13252
▁Murray	-13253
▁silicon	-13254
leted	-13255
▁Flood	-13256
▁dwell	-13257
▁Updated	-13258
▁q	-13259
oned	-13260
ittees	-13261
▁aerial	-13262
▁clergy	-13263
▁guided	-13264
▁radius	-13265
▁senses	-13266
▁Iceland	-13267
▁nearest	-13268
▁renamed	-13269
itational	-13270
▁commentary	-13271
▁Gand	-13272
▁Together	-13273
▁crystals	-13274
▁Chemistry	-13275
▁prosperity	-13276
▁74	-13277
pent	-13278
▁Pale	-13279
Figure	-13280
▁blame	-13281
▁sharks	-13282
▁credits	-13283
▁wool	-13284
hester	-13285
▁incom	-13286
▁passive	-13287
▁motivated	-13288
800	-13289
ista	-13290
▁350	-13291
▁Dal	-13292
fficiency	-13293
▁advocate	-13294
▁portrait	-13295
▁Electronic	-13296
▁>>	-13297
▁oct	-13298
ulent	-13299
▁Kevin	-13300
▁thrust	-13301
▁kidneys	-13302
▁mistakes	-13303
▁Byzantine	-13304
▁interfere	-13305
▁destructive	-13306
▁Ker	-13307
ockey	-13308
astics	-13309
▁1999.	-13310
▁Advis	-13311
▁honour	-13312
▁Articles	-13313
▁terrible	-13314
atis	-13315
oxide	-13316
▁epit	-13317
▁Beyond	-13318
▁specify	-13319
▁champion	-13320
▁inaug	-13321
▁pseud	-13322
▁Guinea	-13323
▁purple	-13324
▁worlds	-13325
▁Barbara	-13326
▁Campbell	-13327
▁Discovery	-13328
▁constraints	-13329
pres	-13330
▁Dry	-13331
▁essays	-13332
ependent	-13333
▁Austrian	-13334
▁magazines	-13335
▁Independent	-13336
chem	-13337
▁crude	-13338
▁spotted	-13339
▁neighboring	-13340
▁similarities	-13341
cf	-13342
-16	-13343
▁NA	-13344
raska	-13345
▁Delta	-13346
▁Airport	-13347
▁Ale	-13348
▁cum	-13349
▁1973	-13350
▁comic	-13351
▁quote	-13352
▁preceding	-13353
ennon	-13354
ogene	-13355
▁1978	-13356
▁Peru	-13357
▁encry	-13358
▁glands	-13359
▁eternal	-13360
weed	-13361
▁Pack	-13362
▁hoping	-13363
▁lighter	-13364
▁Banglades	-13365
▁continually	-13366
nea	-13367
aran	-13368
incess	-13369
▁(2000	-13370
▁Galile	-13371
▁cavalry	-13372
▁refriger	-13373
▁organisations	-13374
▁ib	-13375
▁vein	-13376
▁elite	-13377
▁bypass	-13378
outheastern	-13379
▁collaborative	-13380
▁Mason	-13381
tically	-13382
▁winner	-13383
▁handled	-13384
mi	-13385
oria	-13386
54	-13387
rubs	-13388
▁traces	-13389
▁coupled	-13390
▁sensory	-13391
▁surgeon	-13392
▁informal	-13393
▁destroying	-13394
ATE	-13395
Eng	-13396
▁MRI	-13397
▁Birth	-13398
▁Laure	-13399
▁Create	-13400
▁Warren	-13401
especially	-13402
▁prevalent	-13403
▁incentives	-13404
▁appearances	-13405
▁accompanying	-13406
▁Ga	-13407
▁erad	-13408
▁bench	-13409
▁disse	-13410
▁realm	-13411
▁firing	-13412
▁modify	-13413
▁entries	-13414
▁consuming	-13415
▁emphasized	-13416
▁instrumental	-13417
-30	-13418
rator	-13419
▁monitored	-13420
▁practiced	-13421
aho	-13422
vity	-13423
▁Gate	-13424
Health	-13425
▁drove	-13426
▁tired	-13427
▁robots	-13428
▁walked	-13429
▁swallow	-13430
▁aluminum	-13431
▁Vice	-13432
▁enlar	-13433
▁modes	-13434
▁rulers	-13435
▁shifts	-13436
▁turtles	-13437
▁Religion	-13438
▁furniture	-13439
▁workplace	-13440
▁practitioners	-13441
WA	-13442
▁2016	-13443
▁Account	-13444
▁charity	-13445
▁Palestinian	-13446
▁Ms	-13447
▁Meg	-13448
▁badly	-13449
▁chains	-13450
▁dozens	-13451
▁commerce	-13452
▁infinite	-13453
▁Telescope	-13454
▁lightning	-13455
▁parasites	-13456
▁presentations	-13457
"?	-13458
Col	-13459
rov	-13460
opor	-13461
▁scal	-13462
▁suited	-13463
fficking	-13464
▁Norwegian	-13465
▁attacking	-13466
▁geological	-13467
otyp	-13468
ringe	-13469
semble	-13470
▁Eight	-13471
▁mixing	-13472
▁peculiar	-13473
▁nevertheless	-13474
good	-13475
▁Tow	-13476
▁pigs	-13477
▁solo	-13478
▁tent	-13479
urally	-13480
usions	-13481
▁Johns	-13482
▁Welsh	-13483
▁Hubble	-13484
▁toxins	-13485
▁verbal	-13486
▁hostile	-13487
▁counting	-13488
▁Aristotle	-13489
▁trunk	-13490
▁Engineers	-13491
▁Pediatrics	-13492
▁conceptual	-13493
GA	-13494
oyd	-13495
▁Anna	-13496
▁Viol	-13497
▁composer	-13498
▁shopping	-13499
▁utilized	-13500
▁departure	-13501
▁Antarctica	-13502
SE	-13503
ader	-13504
agog	-13505
▁kills	-13506
▁urged	-13507
▁weren	-13508
▁categor	-13509
▁struggling	-13510
▁combinations	-13511
▁URL	-13512
odynam	-13513
▁Madison	-13514
▁Portugal	-13515
▁sovereignty	-13516
br	-13517
week	-13518
ensis	-13519
▁hook	-13520
access	-13521
▁Progress	-13522
▁interchange	-13523
pur	-13524
ikes	-13525
▁Vin	-13526
doors	-13527
▁climb	-13528
▁contributes	-13529
▁abnormalities	-13530
sur	-13531
aders	-13532
▁peas	-13533
▁fraud	-13534
▁riding	-13535
▁dischar	-13536
▁microscope	-13537
▁restaurant	-13538
-17	-13539
usc	-13540
only	-13541
▁Volunt	-13542
▁territorial	-13543
mont	-13544
iatry	-13545
▁Citiz	-13546
▁Range	-13547
▁Swiss	-13548
▁Always	-13549
▁Finland	-13550
▁Programme	-13551
||1	-13552
▁seaf	-13553
enberg	-13554
welling	-13555
▁legally	-13556
▁worried	-13557
▁spectacular	-13558
▁explanations	-13559
▁geographical	-13560
aro	-13561
▁LED	-13562
▁wax	-13563
▁demol	-13564
▁alliance	-13565
▁homework	-13566
▁strongest	-13567
▁Institution	-13568
▁highlighted	-13569
▁1-	-13570
umat	-13571
osynt	-13572
▁Bond	-13573
▁Karl	-13574
▁rept	-13575
▁opera	-13576
▁handed	-13577
▁torped	-13578
▁Indigenous	-13579
▁provincial	-13580
ipse	-13581
anton	-13582
▁1948	-13583
▁Cany	-13584
▁plural	-13585
▁prejud	-13586
▁colours	-13587
▁courtesy	-13588
▁outbreaks	-13589
▁cultivation	-13590
▁specialists	-13591
aic	-13592
▁pm	-13593
anas	-13594
ilib	-13595
▁1/2	-13596
▁bon	-13597
▁dirt	-13598
▁heal	-13599
imated	-13600
▁canon	-13601
friendly	-13602
▁adventure	-13603
▁reproduce	-13604
UD	-13605
umed	-13606
▁FIG	-13607
▁Wat	-13608
▁tie	-13609
▁Notes	-13610
berries	-13611
esterday	-13612
▁underwater	-13613
uming	-13614
▁Pred	-13615
▁cows	-13616
▁rash	-13617
▁stir	-13618
▁twin	-13619
▁wishes	-13620
ti	-13621
hend	-13622
▁dot	-13623
▁admin	-13624
▁Judaism	-13625
▁curious	-13626
▁airplane	-13627
▁belonged	-13628
▁investigating	-13629
uzz	-13630
▁87	-13631
▁Bou	-13632
▁Mul	-13633
ateur	-13634
▁Flore	-13635
▁thumb	-13636
▁editing	-13637
▁patches	-13638
▁uncommon	-13639
▁perspectives	-13640
**	-13641
fin	-13642
▁Od	-13643
▁Kit	-13644
reach	-13645
:10.10	-13646
▁Cooper	-13647
▁dependence	-13648
▁reconstruct	-13649
ello	-13650
ashing	-13651
▁Recomm	-13652
▁Bernard	-13653
▁Subject	-13654
▁lateral	-13655
▁Columbus	-13656
▁companion	-13657
:2	-13658
▁jaw	-13659
▁Race	-13660
▁sake	-13661
▁Price	-13662
▁Scout	-13663
▁Creation	-13664
▁Napoleon	-13665
▁humidity	-13666
▁readings	-13667
bes	-13668
▁(7	-13669
▁1966	-13670
retion	-13671
▁Falls	-13672
▁pupils	-13673
▁replied	-13674
▁generator	-13675
▁anticipated	-13676
John	-13677
eded	-13678
infl	-13679
▁Ald	-13680
▁Josh	-13681
▁cher	-13682
▁978-0	-13683
▁Spect	-13684
▁tended	-13685
▁cheaper	-13686
▁sisters	-13687
▁discrimin	-13688
▁processor	-13689
91	-13690
hu	-13691
bet	-13692
▁77	-13693
itched	-13694
sonian	-13695
▁fungi	-13696
▁exceptions	-13697
▁instructor	-13698
!)	-13699
rod	-13700
▁True	-13701
▁pathway	-13702
criptions	-13703
▁Character	-13704
MM	-13705
és	-13706
:30	-13707
ova	-13708
vas	-13709
coma	-13710
▁Occup	-13711
▁cruel	-13712
▁Creative	-13713
▁employer	-13714
▁Representatives	-13715
cha	-13716
▁Abd	-13717
▁Len	-13718
▁XML	-13719
▁proc	-13720
▁stamp	-13721
▁dishes	-13722
▁lectures	-13723
▁mainland	-13724
▁withdrawal	-13725
.(	-13726
▁Chand	-13727
▁eager	-13728
▁cooked	-13729
▁polymer	-13730
▁concludes	-13731
▁submarine	-13732
▁mysterious	-13733
▁10-	-13734
▁Pul	-13735
▁brut	-13736
▁tide	-13737
riages	-13738
▁dolph	-13739
▁cavity	-13740
▁facial	-13741
▁distract	-13742
▁economically	-13743
bey	-13744
imity	-13745
▁reass	-13746
culosis	-13747
▁modules	-13748
▁Nebraska	-13749
forestation	-13750
tis	-13751
▁Clar	-13752
▁Term	-13753
▁wast	-13754
bishop	-13755
▁volcano	-13756
▁veterans	-13757
ilies	-13758
iciency	-13759
▁placebo	-13760
▁potatoes	-13761
▁presenting	-13762
▁Nag	-13763
▁Forum	-13764
▁queen	-13765
▁carved	-13766
▁Stevens	-13767
▁somehow	-13768
▁triangle	-13769
orb	-13770
▁1977	-13771
▁athe	-13772
▁kick	-13773
▁pand	-13774
▁worms	-13775
▁cosmic	-13776
▁Nicholas	-13777
▁breakfast	-13778
▁succession	-13779
dale	-13780
ttes	-13781
▁lig	-13782
▁feast	-13783
▁Taiwan	-13784
▁termed	-13785
▁Stanley	-13786
▁Eis	-13787
▁lap	-13788
▁sore	-13789
onomous	-13790
▁discom	-13791
▁Emb	-13792
cerpt	-13793
▁(196	-13794
▁Cole	-13795
▁failing	-13796
▁arriving	-13797
▁circuits	-13798
▁portable	-13799
▁recognised	-13800
▁wilderness	-13801
▁introducing	-13802
Te	-13803
cr	-13804
dig	-13805
▁twe	-13806
▁lamp	-13807
▁1998.	-13808
▁seism	-13809
▁enroll	-13810
▁incons	-13811
▁servers	-13812
▁friendship	-13813
▁commercially	-13814
hell	-13815
ivic	-13816
▁Buck	-13817
namese	-13818
▁moder	-13819
▁Gospel	-13820
tebrates	-13821
▁ancestor	-13822
▁receptors	-13823
▁86	-13824
▁au	-13825
bird	-13826
lear	-13827
izoph	-13828
▁Sudan	-13829
▁Nevada	-13830
▁surely	-13831
imination	-13832
▁cervical	-13833
▁accounted	-13834
▁decreasing	-13835
▁politically	-13836
▁mad	-13837
▁symptom	-13838
▁quarters	-13839
▁evaluating	-13840
▁Stu	-13841
▁sle	-13842
storm	-13843
▁Hend	-13844
quarium	-13845
▁Palace	-13846
▁nausea	-13847
▁cemetery	-13848
▁promotes	-13849
▁achievements	-13850
egu	-13851
▁Hold	-13852
▁hack	-13853
▁Appro	-13854
▁Knight	-13855
▁carriers	-13856
▁Depending	-13857
▁breakthrough	-13858
bone	-13859
▁PRO	-13860
▁alk	-13861
▁Manh	-13862
version	-13863
▁outline	-13864
▁pursuit	-13865
▁spirits	-13866
▁certification	-13867
▁electromagnetic	-13868
Art	-13869
▁Cou	-13870
piece	-13871
rophy	-13872
▁1914	-13873
▁Left	-13874
▁Patri	-13875
▁attach	-13876
▁kernel	-13877
▁theatre	-13878
▁promises	-13879
▁Hollywood	-13880
▁terrestrial	-13881
opath	-13882
▁cubic	-13883
▁seized	-13884
▁Letters	-13885
psy	-13886
▁eds	-13887
estab	-13888
▁Benn	-13889
▁Herm	-13890
▁toxicity	-13891
▁inspection	-13892
▁clot	-13893
▁wounds	-13894
izophren	-13895
▁mobility	-13896
▁AF	-13897
▁Gun	-13898
▁lets	-13899
▁fusion	-13900
▁Partners	-13901
▁inability	-13902
▁Activities	-13903
▁Beng	-13904
▁Ward	-13905
▁Tower	-13906
▁Desert	-13907
▁checking	-13908
▁illustrates	-13909
Ne	-13910
Pe	-13911
uda	-13912
opol	-13913
town	-13914
▁Few	-13915
▁gover	-13916
▁intrig	-13917
▁Antonio	-13918
▁poultry	-13919
▁Beginning	-13920
▁Victorian	-13921
▁dismissed	-13922
▁subjected	-13923
▁cultivated	-13924
▁environmentally	-13925
,’	-13926
OG	-13927
▁1917	-13928
▁grad	-13929
▁flank	-13930
▁pests	-13931
▁prize	-13932
▁siege	-13933
usually	-13934
▁enacted	-13935
▁tourist	-13936
▁excluded	-13937
▁infrared	-13938
▁''	-13939
▁sap	-13940
itime	-13941
▁Birds	-13942
▁Canyon	-13943
▁Reports	-13944
▁updates	-13945
CT	-13946
Or	-13947
▁fox	-13948
▁hasn	-13949
▁coordinate	-13950
iasis	-13951
▁fict	-13952
▁marsh	-13953
▁formats	-13954
▁Database	-13955
▁appetite	-13956
▁temporal	-13957
▁conceived	-13958
▁dissolved	-13959
▁stimulate	-13960
▁witnessed	-13961
link	-13962
▁Thor	-13963
▁Baker	-13964
▁patrol	-13965
▁examines	-13966
▁pathogens	-13967
▁respected	-13968
▁workshops	-13969
▁Ay	-13970
olen	-13971
▁(15	-13972
annah	-13973
▁1998,	-13974
▁Manual	-13975
▁dreams	-13976
▁Bron	-13977
▁Vacc	-13978
▁sink	-13979
ricket	-13980
▁theor	-13981
▁Atmosp	-13982
▁lawyer	-13983
▁biblical	-13984
pub	-13985
umm	-13986
iracy	-13987
▁exit	-13988
▁Maybe	-13989
▁admit	-13990
▁esoph	-13991
▁shouldn	-13992
▁seizures	-13993
▁compelling	-13994
▁recommendation	-13995
.||	-13996
▁ray	-13997
rades	-13998
▁Sleep	-13999
▁Trail	-14000
▁bottles	-14001
▁goddess	-14002
▁Mitchell	-14003
▁Wel	-14004
andal	-14005
apolis	-14006
▁3,000	-14007
▁Pruss	-14008
▁premi	-14009
▁Baptist	-14010
▁portrayed	-14011
▁rebellion	-14012
▁pharmaceut	-14013
▁gig	-14014
▁Member	-14015
▁tragedy	-14016
▁veterin	-14017
▁factories	-14018
comm	-14019
▁Immun	-14020
▁Nixon	-14021
▁Example	-14022
▁displaced	-14023
▁priorities	-14024
▁reductions	-14025
▁125	-14026
eches	-14027
second	-14028
▁Forces	-14029
▁binary	-14030
▁schemes	-14031
▁exhibits	-14032
▁satisfaction	-14033
▁69	-14034
▁73	-14035
▁(17	-14036
▁draws	-14037
▁snake	-14038
raviolet	-14039
▁centres	-14040
▁integrate	-14041
VA	-14042
mans	-14043
▁Blu	-14044
ushes	-14045
▁(197	-14046
▁bowl	-14047
▁buffer	-14048
▁displace	-14049
▁efficacy	-14050
▁networking	-14051
▁methodology	-14052
▁82	-14053
aire	-14054
race	-14055
▁ink	-14056
▁Austin	-14057
▁contacts	-14058
▁monetary	-14059
▁servants	-14060
Can	-14061
som	-14062
irts	-14063
▁Rosen	-14064
▁upset	-14065
▁cortex	-14066
▁wolves	-14067
▁Madonna	-14068
▁inferior	-14069
▁breakdown	-14070
▁declining	-14071
dri	-14072
supp	-14073
▁Cust	-14074
▁acou	-14075
▁Truth	-14076
resistant	-14077
▁extracted	-14078
▁placement	-14079
erenn	-14080
▁deny	-14081
▁nurses	-14082
oporosis	-14083
▁dignity	-14084
▁compress	-14085
▁headache	-14086
▁Vietnamese	-14087
▁assignments	-14088
▁declaration	-14089
▁exploitation	-14090
zi	-14091
ean	-14092
▁iv	-14093
iencies	-14094
▁momentum	-14095
▁Hampshire	-14096
▁concentrate	-14097
▁standardized	-14098
▁hect	-14099
mother	-14100
estinal	-14101
▁metric	-14102
▁tactics	-14103
▁Category	-14104
▁compromise	-14105
▁identifies	-14106
▁Communications	-14107
▁Reich	-14108
▁Tests	-14109
▁ambit	-14110
▁Vienna	-14111
▁fastest	-14112
▁modification	-14113
inar	-14114
birds	-14115
▁dealt	-14116
▁Easter	-14117
▁archive	-14118
▁breathe	-14119
▁donated	-14120
▁Problems	-14121
▁Syndrome	-14122
▁cylinder	-14123
▁biography	-14124
▁publisher	-14125
▁rehabilitation	-14126
cery	-14127
▁Finn	-14128
▁amphib	-14129
▁pilots	-14130
▁staying	-14131
▁merchant	-14132
▁offshore	-14133
▁civilians	-14134
fil	-14135
▁PS	-14136
otte	-14137
rowse	-14138
▁Dall	-14139
▁publish	-14140
▁governing	-14141
▁algorithms	-14142
▁minorities	-14143
.3	-14144
ocide	-14145
▁comet	-14146
▁Version	-14147
▁fathers	-14148
▁generic	-14149
▁5-	-14150
▁Ran	-14151
isive	-14152
▁SA	-14153
▁Mend	-14154
▁cran	-14155
▁Pitts	-14156
induced	-14157
▁Nearly	-14158
▁builds	-14159
▁Sources	-14160
▁cleared	-14161
▁horizon	-14162
▁Bangladesh	-14163
▁illustration	-14164
▁Il	-14165
▁tast	-14166
▁Could	-14167
▁individ	-14168
▁texture	-14169
ochemical	-14170
▁Recently	-14171
iami	-14172
▁202	-14173
▁slopes	-14174
▁shifted	-14175
▁everybody	-14176
▁que	-14177
month	-14178
▁Ring	-14179
▁Saud	-14180
▁theater	-14181
▁Programs	-14182
▁conquest	-14183
”)	-14184
▁Cyp	-14185
▁Hob	-14186
▁sins	-14187
alling	-14188
phones	-14189
▁balls	-14190
▁Reform	-14191
▁Babylon	-14192
▁Chamber	-14193
Us	-14194
▁folks	-14195
▁stopping	-14196
▁tourists	-14197
▁activated	-14198
▁obtaining	-14199
4),	-14200
pop	-14201
▁FL	-14202
▁SM	-14203
rone	-14204
adows	-14205
▁stro	-14206
abited	-14207
▁Faith	-14208
▁hungry	-14209
▁keyboard	-14210
▁analyzing	-14211
▁invisible	-14212
iotic	-14213
oslav	-14214
▁hate	-14215
▁forum	-14216
▁anyway	-14217
▁traced	-14218
▁besides	-14219
▁exceeding	-14220
▁Performance	-14221
▁disturbance	-14222
10,	-14223
▁Nig	-14224
vance	-14225
▁appar	-14226
▁Athens	-14227
▁barely	-14228
▁counted	-14229
▁tsunami	-14230
▁Activity	-14231
▁resemble	-14232
▁Greenland	-14233
▁Manhattan	-14234
TO	-14235
there	-14236
▁Side	-14237
▁energ	-14238
▁breeds	-14239
▁Parkinson	-14240
▁violation	-14241
Do	-14242
▁apost	-14243
▁Webster	-14244
▁translate	-14245
▁designation	-14246
cm	-14247
gate	-14248
▁Kid	-14249
▁trop	-14250
▁Would	-14251
▁Write	-14252
▁bombs	-14253
ometric	-14254
▁resort	-14255
▁specially	-14256
raul	-14257
oglob	-14258
▁Clay	-14259
▁wore	-14260
▁Words	-14261
▁addiction	-14262
▁gum	-14263
▁1962	-14264
▁Gent	-14265
▁subd	-14266
thirds	-14267
▁clues	-14268
▁banking	-14269
▁silence	-14270
▁explores	-14271
▁improves	-14272
▁ministry	-14273
▁Catherine	-14274
▁advertise	-14275
▁emphasize	-14276
▁observers	-14277
▁incredible	-14278
4-	-14279
▁Et	-14280
▁zo	-14281
bage	-14282
▁Tam	-14283
▁Fant	-14284
▁maneu	-14285
forward	-14286
▁solved	-14287
▁grazing	-14288
▁warnings	-14289
▁deposited	-14290
▁impressed	-14291
▁intestine	-14292
▁ministers	-14293
▁inevitable	-14294
▁scholarship	-14295
▁accumulation	-14296
AND	-14297
▁Rat	-14298
▁YOU	-14299
ijing	-14300
▁Task	-14301
▁Illust	-14302
▁Peters	-14303
▁metall	-14304
▁triple	-14305
▁Gilbert	-14306
▁rounded	-14307
▁Americas	-14308
▁Handbook	-14309
▁amendment	-14310
▁demanding	-14311
▁supervision	-14312
"),	-14313
enc	-14314
▁Caes	-14315
▁expenses	-14316
▁Economics	-14317
▁philosopher	-14318
▁reliability	-14319
▁recreational	-14320
▁odds	-14321
▁woods	-14322
▁stocks	-14323
▁Stewart	-14324
▁corrupt	-14325
▁exports	-14326
▁eruption	-14327
▁Sustainable	-14328
▁counterparts	-14329
pus	-14330
idth	-14331
▁pour	-14332
ograms	-14333
▁careg	-14334
▁Rivers	-14335
oriented	-14336
▁temples	-14337
▁Commander	-14338
▁obstacles	-14339
▁discomfort	-14340
▁cooperative	-14341
▁predominantly	-14342
yg	-14343
cap	-14344
▁Draw	-14345
▁matching	-14346
▁salvation	-14347
▁sensation	-14348
57	-14349
educ	-14350
▁Abb	-14351
maker	-14352
▁Acts	-14353
▁None	-14354
▁Prem	-14355
▁feud	-14356
eering	-14357
▁rigid	-14358
▁bronze	-14359
▁marrow	-14360
▁Various	-14361
▁homeless	-14362
▁instinct	-14363
▁prospect	-14364
▁combining	-14365
rians	-14366
▁1963	-14367
▁loads	-14368
▁summit	-14369
▁lesions	-14370
izational	-14371
▁mistaken	-14372
▁alignment	-14373
▁gravitational	-14374
km	-14375
eda	-14376
▁BL	-14377
sett	-14378
▁Jam	-14379
▁Wet	-14380
acity	-14381
opard	-14382
▁fees	-14383
▁uncons	-14384
▁beaches	-14385
▁museums	-14386
▁impaired	-14387
▁Scripture	-14388
▁counseling	-14389
▁Publications	-14390
▁instructional	-14391
▁damages	-14392
▁rolling	-14393
▁headaches	-14394
▁restaurants	-14395
▁carbohydrates	-14396
isite	-14397
▁serial	-14398
▁Lithuan	-14399
▁careers	-14400
▁parking	-14401
▁signing	-14402
▁opponent	-14403
▁ingredient	-14404
eway	-14405
▁Gran	-14406
▁Tips	-14407
iguous	-14408
▁veins	-14409
▁constell	-14410
▁periodic	-14411
▁singular	-14412
▁believing	-14413
▁satisfied	-14414
▁dedu	-14415
▁ridge	-14416
▁feared	-14417
▁Everyone	-14418
▁coalition	-14419
▁calculation	-14420
52	-14421
▁Cow	-14422
▁Pel	-14423
count	-14424
▁bugs	-14425
▁Johann	-14426
▁tonnes	-14427
▁Football	-14428
▁Portland	-14429
artz	-14430
eech	-14431
▁Fel	-14432
▁oun	-14433
quest	-14434
▁Prob	-14435
▁carn	-14436
▁1997,	-14437
▁5,000	-14438
▁naked	-14439
▁oscill	-14440
▁suppose	-14441
▁archives	-14442
▁Communication	-14443
▁Evans	-14444
▁Prevent	-14445
▁prophet	-14446
▁Software	-14447
▁meanings	-14448
▁landscapes	-14449
▁organizing	-14450
EX	-14451
▁iP	-14452
atics	-14453
cience	-14454
imeters	-14455
▁Branch	-14456
▁upward	-14457
▁Officer	-14458
▁Abstract	-14459
▁troubles	-14460
▁astronauts	-14461
▁laboratories	-14462
enz	-14463
▁IR	-14464
fund	-14465
ieve	-14466
▁(16	-14467
▁Sad	-14468
▁meg	-14469
▁orn	-14470
▁pod	-14471
ergarten	-14472
▁leather	-14473
▁Scientist	-14474
▁witnesses	-14475
▁journalist	-14476
▁compression	-14477
tech	-14478
erred	-14479
▁Soil	-14480
▁fool	-14481
▁lean	-14482
▁cooler	-14483
▁plains	-14484
▁compassion	-14485
▁jack	-14486
▁genealog	-14487
▁saturated	-14488
▁investigators	-14489
feld	-14490
▁ABC	-14491
▁VII	-14492
▁silk	-14493
▁Alice	-14494
▁Leaders	-14495
▁endorse	-14496
▁handful	-14497
▁recycled	-14498
▁fundament	-14499
▁Days	-14500
ullivan	-14501
▁abortion	-14502
▁glaciers	-14503
▁Entertain	-14504
▁battalion	-14505
inh	-14506
▁18.	-14507
▁Cris	-14508
▁Dean	-14509
headed	-14510
▁Mormon	-14511
▁inputs	-14512
▁wheels	-14513
▁Disorders	-14514
▁planetary	-14515
▁impairment	-14516
▁Lau	-14517
▁Nam	-14518
▁pleased	-14519
▁ambitious	-14520
▁reflecting	-14521
▁94	-14522
▁Kan	-14523
aceae	-14524
▁burst	-14525
▁hollow	-14526
ibration	-14527
▁dialect	-14528
▁harmony	-14529
▁linking	-14530
▁injected	-14531
▁investors	-14532
▁eliminating	-14533
▁quantitative	-14534
▁AA	-14535
▁SH	-14536
▁Ul	-14537
cott	-14538
itoes	-14539
▁reply	-14540
▁revision	-14541
▁lux	-14542
▁deaf	-14543
▁pile	-14544
▁Estab	-14545
▁propri	-14546
▁verses	-14547
▁grasses	-14548
▁inappropriate	-14549
▁$3	-14550
brev	-14551
▁Shah	-14552
▁exotic	-14553
ilibrium	-14554
▁reactors	-14555
62	-14556
pine	-14557
▁Ltd	-14558
▁Lock	-14559
▁Miami	-14560
▁Better	-14561
▁Methods	-14562
▁probable	-14563
▁Melbourne	-14564
▁collision	-14565
▁definitive	-14566
chy	-14567
▁79	-14568
▁CF	-14569
cend	-14570
▁Calc	-14571
▁cens	-14572
▁glow	-14573
▁shops	-14574
▁Things	-14575
▁sailed	-14576
▁centered	-14577
▁enrolled	-14578
▁Definition	-14579
pher	-14580
ugar	-14581
▁Ali	-14582
▁Eld	-14583
▁dawn	-14584
abetic	-14585
writing	-14586
▁Arabia	-14587
▁Compan	-14588
▁biopsy	-14589
▁couples	-14590
▁triumph	-14591
▁Wa	-14592
ripp	-14593
▁Crow	-14594
▁Jere	-14595
▁boom	-14596
ancial	-14597
▁resil	-14598
gencies	-14599
▁Wallace	-14600
▁venture	-14601
▁microbes	-14602
▁treasure	-14603
▁protocols	-14604
▁complaints	-14605
▁incomplete	-14606
▁Kl	-14607
hett	-14608
▁Too	-14609
▁Lisa	-14610
▁dens	-14611
alties	-14612
inburgh	-14613
urgical	-14614
▁Reagan	-14615
▁towers	-14616
▁vocals	-14617
▁audiences	-14618
Im	-14619
▁todd	-14620
rament	-14621
▁fungus	-14622
▁snakes	-14623
▁divorce	-14624
▁gradual	-14625
clamation	-14626
▁correspondence	-14627
Aug	-14628
ski	-14629
what	-14630
▁Lex	-14631
▁Room	-14632
▁Zone	-14633
▁Parker	-14634
▁uterus	-14635
ographers	-14636
▁Academic	-14637
▁attorney	-14638
▁intestinal	-14639
With	-14640
▁Brah	-14641
▁abst	-14642
▁hell	-14643
▁tear	-14644
▁drown	-14645
▁panic	-14646
healthy	-14647
▁microw	-14648
▁Liberty	-14649
▁disagree	-14650
▁Queensland	-14651
:3	-14652
ambo	-14653
▁Pic	-14654
▁mush	-14655
▁altar	-14656
▁Concer	-14657
▁harmon	-14658
▁limestone	-14659
▁84	-14660
grim	-14661
some	-14662
▁Else	-14663
▁racism	-14664
▁balloon	-14665
▁refined	-14666
▁prediction	-14667
▁Smithsonian	-14668
rines	-14669
▁ions	-14670
▁behave	-14671
▁worthy	-14672
▁Ecology	-14673
▁utilize	-14674
▁administrators	-14675
61	-14676
CL	-14677
Jan	-14678
▁ramp	-14679
▁Release	-14680
▁antenna	-14681
▁nesting	-14682
▁Confeder	-14683
▁adjusted	-14684
▁Associated	-14685
▁psychiatric	-14686
arity	-14687
▁File	-14688
ophers	-14689
edience	-14690
▁superf	-14691
intestinal	-14692
▁collapsed	-14693
▁comprises	-14694
▁routinely	-14695
▁attendance	-14696
▁extraction	-14697
▁inequality	-14698
▁undergraduate	-14699
doc	-14700
▁(9	-14701
anka	-14702
▁Anat	-14703
▁gauge	-14704
▁Explore	-14705
▁Measure	-14706
▁militia	-14707
▁immunity	-14708
▁trillion	-14709
▁pesticide	-14710
news	-14711
▁Moz	-14712
▁Ron	-14713
▁bol	-14714
orpor	-14715
▁lion	-14716
ratory	-14717
▁Stage	-14718
▁bibli	-14719
▁cancell	-14720
▁Hungarian	-14721
▁possessed	-14722
▁appreciation	-14723
87	-14724
igo	-14725
▁fr	-14726
odia	-14727
▁100%	-14728
omorph	-14729
ository	-14730
▁Images	-14731
▁refuse	-14732
▁Collins	-14733
▁Village	-14734
▁outdoors	-14735
▁purchasing	-14736
▁internationally	-14737
0.0	-14738
oda	-14739
▁93	-14740
anus	-14741
▁grab	-14742
▁Frequ	-14743
▁Issue	-14744
▁wrest	-14745
▁propaganda	-14746
pox	-14747
axis	-14748
stud	-14749
▁cad	-14750
▁boot	-14751
▁coup	-14752
▁ceiling	-14753
▁triggered	-14754
▁sanitation	-14755
▁16.	-14756
▁ram	-14757
▁renewed	-14758
▁tribute	-14759
ographies	-14760
▁Multiple	-14761
▁assessing	-14762
▁packaging	-14763
▁neurological	-14764
89	-14765
▁71	-14766
odus	-14767
ietal	-14768
comput	-14769
▁tenth	-14770
▁uncon	-14771
▁Graham	-14772
▁differs	-14773
▁attachment	-14774
▁Intelligence	-14775
▁hypertension	-14776
▁inflammatory	-14777
▁surprisingly	-14778
uly	-14779
▁Rud	-14780
▁cement	-14781
▁checks	-14782
▁housed	-14783
▁packed	-14784
▁poster	-14785
▁Shortly	-14786
▁fighter	-14787
▁morality	-14788
▁Constantin	-14789
▁Guidelines	-14790
▁critically	-14791
xx	-14792
due	-14793
oni	-14794
lihood	-14795
▁Influ	-14796
▁crater	-14797
▁fright	-14798
▁nights	-14799
▁runoff	-14800
▁trucks	-14801
▁Typically	-14802
▁depressed	-14803
▁parameter	-14804
▁81	-14805
ocytes	-14806
▁intim	-14807
▁prest	-14808
▁Theatre	-14809
▁cabinet	-14810
▁frontier	-14811
▁Entertainment	-14812
▁bug	-14813
izard	-14814
▁Marie	-14815
▁exile	-14816
articles	-14817
▁screens	-14818
▁stretching	-14819
▁neighborhoods	-14820
ayan	-14821
oton	-14822
▁jury	-14823
▁1997.	-14824
▁Meteor	-14825
▁individually	-14826
pay	-14827
▁1946	-14828
▁Rick	-14829
▁appl	-14830
ativity	-14831
orescent	-14832
▁opposing	-14833
▁variants	-14834
▁sovereign	-14835
▁suggestion	-14836
▁Bald	-14837
▁mate	-14838
▁Orange	-14839
▁missile	-14840
▁GA	-14841
stock	-14842
esthes	-14843
▁Brist	-14844
▁newer	-14845
▁tender	-14846
▁enthusi	-14847
▁Interior	-14848
▁chambers	-14849
▁defended	-14850
▁turbines	-14851
▁righteous	-14852
gom	-14853
hoe	-14854
nas	-14855
ilia	-14856
mile	-14857
▁Lad	-14858
▁aug	-14859
ouver	-14860
▁1912	-14861
▁Leban	-14862
ulatory	-14863
▁exempl	-14864
▁bombing	-14865
▁heavier	-14866
▁overhead	-14867
▁consequently	-14868
enez	-14869
▁sits	-14870
▁thee	-14871
▁scans	-14872
▁Mobile	-14873
▁decent	-14874
▁telesc	-14875
▁Alcohol	-14876
▁Beijing	-14877
▁monkeys	-14878
▁delicate	-14879
▁steadily	-14880
▁positively	-14881
▁manuscripts	-14882
-14	-14883
▁Mack	-14884
▁nomin	-14885
▁refere	-14886
▁shuttle	-14887
▁juvenile	-14888
▁perceive	-14889
bus	-14890
ril	-14891
rawn	-14892
▁1913	-14893
▁epic	-14894
▁intu	-14895
▁1996.	-14896
▁Lesson	-14897
▁puzzle	-14898
▁equator	-14899
▁favored	-14900
▁recruit	-14901
▁recordings	-14902
may	-14903
▁Da	-14904
▁EM	-14905
ilis	-14906
▁Nar	-14907
▁Zoo	-14908
venth	-14909
▁Horse	-14910
lighten	-14911
▁arises	-14912
▁laying	-14913
▁voyage	-14914
▁supreme	-14915
[...]
